<unk>	0
<s>	0
</s>	0
<pad>	0
▁	-1.9801
▁A	-2.832
#	-3.02019
▁(	-3.30048
▁)	-3.334
A	-3.35031
▁B	-3.38495
B	-3.54608
、	-3.61334
]	-3.84979
▁=	-3.85523
▁[	-3.88687
,	-3.89736
の	-4.0492
とする	-4.06673
C	-4.23223
を	-4.24539
▁C	-4.24979
:	-4.26227
▁.	-4.30278
▁0	-4.45175
▁1	-4.57143
1	-4.79808
▁+	-4.89021
から	-4.93595
▁in	-4.9938
す	-5.0077
繰り返	-5.01195
▁for	-5.0471
▁if	-5.05339
に	-5.0718
▁-	-5.09759
D	-5.14934
)	-5.15458
(	-5.19027
▁D	-5.23979
として	-5.3711
が	-5.37901
▁int	-5.44054
▁range	-5.44135
する	-5.45419
る	-5.50467
▁input	-5.51074
=	-5.52723
▁*	-5.63264
▁print	-5.64339
0	-5.71853
2	-5.84968
==	-5.88626
▁2	-5.9503
_	-5.95431
と等しいとき	-5.95661
を出力する	-6.00515
させ	-6.01038
▁split	-6.03657
▁return	-6.04037
.	-6.04038
番目に	-6.04582
未満までの数列を順に	-6.06819
E	-6.10111
▁sys	-6.10543
それぞれ	-6.20569
▁map	-6.20866
加	-6.21067
増	-6.21067
▁E	-6.22607
次	-6.23276
中断する	-6.25516
だけ	-6.26047
とし	-6.31535
while	-6.37182
▁append	-6.43103
番目の	-6.47352
▁入力された文字列	-6.50521
を返す	-6.55208
番目を	-6.57806
ル	-6.61124
い	-6.65388
ュー	-6.67319
ジ	-6.67349
port	-6.67409
▁im	-6.67409
モ	-6.67409
用	-6.67409
を追加する	-6.67511
break	-6.68553
繰り返し	-6.68584
の末尾に	-6.71313
▁入力された文字列の整数値を	-6.73175
▁<	-6.75836
番目が	-6.76892
True	-6.79102
()	-6.82396
間	-6.87105
を空白で分割した字句列の各要素に	-6.88065
を順に	-6.91478
未満までの数列の各要素を	-6.93704
▁len	-6.96554
番目	-6.99124
F	-6.99395
▁readline	-7.01498
からなる列の	-7.03107
▁list	-7.0414
[	-7.05748
▁F	-7.10033
▁and	-7.11674
▁%	-7.1203
▁空列を	-7.12427
3	-7.13492
stdin	-7.16652
▁'	-7.16939
▁**	-7.18238
を加えた値を	-7.18332
▁3	-7.21748
▁>	-7.22936
整数を適用した列を展開し	-7.24643
まで	-7.30361
▁e	-7.31773
<=	-7.36777
!=	-7.37106
x	-7.39233
▁//	-7.44842
の組	-7.46292
より小さいとき	-7.47355
からなる列を	-7.47962
を展開し	-7.49154
▁math	-7.50649
-1	-7.52471
None	-7.54784
番目から	-7.56562
▁10	-7.57245
▁/	-7.57521
を引いた値を	-7.58097
▁write	-7.58474
▁入力された文字列を	-7.58852
を加えた値	-7.59465
(0)	-7.60091
▁not	-7.60755
▁from	-7.61224
のとき	-7.66122
in	-7.66421
▁solve	-7.6837
回分の列を	-7.69117
少	-7.69689
と	-7.7058
減	-7.72262
より大きいとき	-7.72494
G	-7.7329
__	-7.74268
一	-7.75034
▁str	-7.76445
-	-7.77253
を空白で分割した字句列の各要素	-7.78169
▁''	-7.78301
を引いた値	-7.80785
▁max	-7.83259
4	-7.83455
も	-7.85149
False	-7.85344
▁4	-7.8568
う	-7.86372
度	-7.87858
▁min	-7.88098
ue	-7.88138
最初	-7.88158
▁cont	-7.88194
を掛けた値に	-7.89288
10	-7.90585
は	-7.90644
left	-7.91067
と等しくないとき	-7.91577
▁G	-7.93596
▁{	-7.95028
5	-7.95361
▁main	-7.95482
y	-7.9641
▁5	-7.97873
▁collections	-8.01529
に整数を適用した列を展開し	-8.01756
}	-8.02079
n	-8.02178
▁count	-8.02677
を加えた値未満までの数列を順に	-8.03391
right	-8.04867
p	-8.05123
▁or	-8.09918
MA	-8.10282
SK	-8.10642
>=	-8.13124
▁pop	-8.13393
からなる列	-8.13969
から読み込んだ一行を	-8.14503
▁sum	-8.14643
join	-8.15395
name	-8.17765
▁is	-8.18448
の列を	-8.18539
識別子が	-8.20984
▁__	-8.23455
else	-8.24175
))	-8.24934
path	-8.25118
▁x	-8.25661
の各要素を	-8.2619
そうでなければ	-8.2666
整数を適用した列のリストを	-8.26905
以下のとき	-8.27084
関	-8.27473
try	-8.27473
あ	-8.27473
件	-8.27473
例	-8.27473
外	-8.27473
条	-8.27473
stdout	-8.27919
e	-8.28061
を加えた値に	-8.30986
▁bisect	-8.33668
▁os	-8.36561
▁真を	-8.36982
の先頭	-8.39245
、0	-8.39446
▁set	-8.3978
▁y	-8.40915
size	-8.41207
▁&	-8.42286
▁p	-8.42404
+	-8.42923
番目の末尾に	-8.44742
▁dfs	-8.44832
をソート	-8.46003
▁format	-8.46032
▁sort	-8.47544
▁abs	-8.47574
に含まれるとき	-8.47959
を引いた値に	-8.48229
を掛けた値を	-8.51019
▁float	-8.5109
と等しくかつ	-8.51363
を書式として	-8.53331
▁add	-8.53343
▁heappush	-8.54529
▁root	-8.54988
で割った余りが	-8.55576
popleft	-8.55766
▁enumerate	-8.55897
▁get	-8.55916
imag	-8.56155
つまり先頭から	-8.57449
を引いた値番目の	-8.60266
key	-8.60419
▁end	-8.61081
番目を出力する	-8.61181
内の	-8.61804
の整数値を	-8.62008
で割った余りを	-8.62392
以上のとき	-8.62672
▁何も	-8.63326
7	-8.63577
を加えた値が	-8.64285
▁left	-8.64404
▁sorted	-8.64755
real	-8.65474
番目だけ	-8.65711
H	-8.65801
を加えた値から	-8.66376
の長さを	-8.66597
▁cross	-8.68386
番目を順に	-8.68454
▁right	-8.68502
返す	-8.69496
argv	-8.70366
root	-8.70455
の先頭を	-8.70527
を加えた値番目の	-8.70614
sys	-8.72915
を掛けた値から	-8.73289
▁偽を	-8.7371
の組を	-8.7375
の組を追加	-8.73862
乗を	-8.74225
乗に	-8.7456
の長さ未満までの数列を順に	-8.74633
'	-8.7475
の長さが	-8.74833
▁key	-8.7611
▁<<	-8.76577
をパラメータとして	-8.78062
▁7	-8.78081
▁lambda	-8.78197
に番号付した組の列を順に	-8.78309
を加えた値番目に	-8.78551
つまり空列の列を	-8.78818
で割った商を	-8.78875
▁itertools	-8.79753
▁Point	-8.79856
を引いた値から	-8.80609
9	-8.81336
を空白で分割した字句列の各要素を	-8.82997
間隔の数列を順に	-8.83243
▁heapq	-8.83267
6	-8.83387
番目のとき	-8.84112
▁6	-8.84405
▁Vector	-8.84963
int	-8.85664
を加えた値未満までの数列の各要素	-8.8782
▁time	-8.87927
を加えた値回分の列を	-8.88101
*	-8.88703
8	-8.90635
▁偽	-8.90992
▁H	-8.91402
空白で分割した字句列の各要素に	-8.92165
に整数を適用した列のリストを	-8.92498
でないとき	-8.92521
▁100	-8.92945
つまり入力された文字列の整数値	-8.92998
の整数値の列を	-8.9537
の組を返す	-8.95521
▁find	-8.97357
を引いた値番目に	-8.97498
を引いた値未満までの数列を順に	-8.9762
▁heappop	-8.97702
を書き込む	-8.98179
▁9	-8.98852
で割った値を	-8.99417
list	-8.99629
graph	-8.99839
座標に	-9.00566
入力された文字列	-9.01032
▁空辞書を	-9.01037
level	-9.01381
を展開してを出力する	-9.01748
で整形した文字列を出力する	-9.01771
▁未定値を	-9.02031
▁改行せずに	-9.02071
▁zip	-9.0243
の整数値の列を展開し	-9.0337
▁8	-9.04683
を加えた値を出力する	-9.0522
▁deque	-9.05351
を掛けた値	-9.05392
input	-9.07773
parent	-9.0821
を追加した集まり	-9.08667
と等しくまたは	-9.08999
edge	-9.09126
を引いた値番目を	-9.09248
strip	-9.09251
返	-9.09353
番目より小さいとき	-9.09704
さ	-9.09807
つまり未定値	-9.09838
ない	-9.09848
を連結した文字列を出力する	-9.09924
の両端キューを	-9.09974
100	-9.10209
を加えた値番目を	-9.10256
を引いた値の	-9.10697
▁index	-9.11136
つまり入力された文字列	-9.13171
未満までの	-9.135
で割った商	-9.1365
table	-9.14293
d	-9.14836
▁f	-9.15007
▁真	-9.1545
を空白で分割した字句列	-9.16732
の先頭の	-9.17172
60	-9.17382
と等しいかどうかが	-9.17405
▁I	-9.17622
par	-9.18123
value	-9.18274
▁|	-9.18857
番目を返す	-9.19101
data	-9.19755
の先頭を取り出した値	-9.19755
▁calc	-9.19995
より小さくかつ	-9.20681
%	-9.21833
かつ	-9.21874
▁n	-9.22476
の最大値を	-9.23692
▁入力された文字列を空白	-9.23836
の列回分の列	-9.23862
get	-9.23892
と等しくない	-9.24089
▁update	-9.25259
I	-9.25716
行	-9.26713
番目を展開し	-9.27301
▁空	-9.27435
▁size	-9.28133
以下かどうかが	-9.28492
tuple	-9.28531
変数	-9.28531
▁reverse	-9.28777
ロー	-9.2894
to	-9.29539
._	-9.29773
番目を加えた値を	-9.3058
▁空白文字を間に入れて	-9.31322
▁g	-9.31355
environ	-9.31637
の各要素に整数を適用した列	-9.31726
番目とする	-9.3195
sqrt	-9.32482
追加する	-9.3282
-1)	-9.34169
より大きい	-9.3427
に含まれないとき	-9.34842
[1:])	-9.35498
つまり未定値と等しくないとき	-9.35981
▁copy	-9.36381
time	-9.37104
を加えた値番目	-9.37626
を引いた値番目	-9.37793
を引いた値が	-9.37846
の長さ	-9.38029
▁run	-9.38101
▁60	-9.38156
の最小値を	-9.39405
より小さい	-9.3955
で割った商に	-9.40303
f	-9.40798
を掛けた値を加えた値を	-9.40902
▁check	-9.41229
に対応する値	-9.41759
▁1000	-9.42443
以下かつ	-9.42612
▁^	-9.42683
pip	-9.42846
▁parent	-9.42852
番目でないとき	-9.42901
▁Node	-9.43522
番目と等しいとき	-9.44037
もし存在しなければ	-9.44168
▁'\	-9.44404
を掛けた値を引いた値を	-9.44424
番目を追加する	-9.44458
の列の列を	-9.44654
グ	-9.45126
で分割した字句列の各要素に	-9.45581
lo	-9.45841
バ	-9.46093
のリストを	-9.46111
is	-9.46327
bal	-9.4658
"	-9.47732
s	-9.47737
+1,	-9.48082
整数を適用した列のリストの列を	-9.48263
▁空文字列を	-9.48851
id	-9.48901
▁open	-9.50715
a	-9.50908
order	-9.52888
の先頭を取り出した値を	-9.53118
t	-9.54012
え	-9.54982
入れ	-9.54982
替	-9.54982
node	-9.55409
top	-9.5566
の長さから	-9.5661
▁ord	-9.56803
▁dot	-9.56978
add	-9.57609
▁d	-9.57713
▁r	-9.57772
▁pow	-9.58115
の先頭から	-9.58951
▁insert	-9.59589
readline	-9.59717
つまり偽	-9.59764
+1)	-9.6037
▁remove	-9.60433
nodes	-9.60454
▁pi	-9.6092
ネイピア数	-9.61942
▁>>	-9.62002
の両端から	-9.62234
pass	-9.62423
しない	-9.62424
を掛けた値を出力する	-9.62427
▁par	-9.62555
20	-9.62688
0.5	-9.62734
dfs	-9.62773
と等しい要素を取り除く	-9.63285
の先頭に	-9.64059
number	-9.65339
を掛けた値だけ	-9.65588
を掛けた値を加えた値に	-9.66131
1000	-9.66218
からなる辞書を	-9.66255
edges	-9.66525
を空白で分割した字句列を	-9.67305
つまり未定値と等しいとき	-9.67627
v	-9.68564
空白で分割した字句列の各要素	-9.69446
sort	-9.70649
▁ソートされた順序を保ったまま	-9.70937
▁re	-9.71467
(-1)	-9.71647
dist	-9.7342
倍	-9.73613
▁20	-9.73724
▁inf	-9.74232
gcd	-9.74236
cross	-9.7442
ネイピア数とする	-9.74446
の最大値	-9.74744
next	-9.74898
の先頭を除いた部分列	-9.7697
より大きくかつ	-9.77095
と等しくなくかつ	-9.77233
▁空文字列を間に入れて	-9.77453
(1)	-9.77834
fct	-9.77865
▁無限の整数列を	-9.77895
prt	-9.7793
search	-9.78377
os	-9.78451
r	-9.78528
の整数値	-9.78555
▁next	-9.78872
weights	-9.79221
▁0.5	-9.79495
items	-9.79549
pt	-9.80303
空白改行を取り除いた文字列を	-9.80486
N	-9.80526
num	-9.80541
distance	-9.80814
番目の整数値を	-9.81139
ー	-9.81211
▁集合を	-9.81418
の論理積のとき	-9.81992
▁defaultdict	-9.83078
で割った余りに	-9.83154
文字で分割した字句列の各要素を	-9.83783
から読み込んだ一行の整数値を	-9.84261
の要素をそれぞれ組にした列を順に	-9.84765
b	-9.85278
18	-9.85507
で割った余り	-9.85555
分の	-9.85578
tree	-9.85702
以下の	-9.85932
で割った余りを出力する	-9.86025
▁dist	-9.86062
を無限の整数列	-9.8631
color	-9.86472
▁0.0	-9.86521
のコピーされた列を	-9.86626
から読み込んだ一行	-9.87191
座標	-9.87247
now	-9.8731
を加えた値番目が	-9.87993
mod	-9.88323
max	-9.8838
論理和に	-9.88582
find	-9.8926
乗	-9.90302
乗から	-9.90397
だけ左シフトした値	-9.90606
point	-9.90661
以上かつ	-9.91724
[1])	-9.91945
を引いた値番目が	-9.91948
からなる列に	-9.92345
つまり末尾までの部分列に	-9.92369
red	-9.92621
の総和を	-9.93295
[0],	-9.93574
つまり末尾までの部分列を	-9.93889
▁push	-9.94485
と等しいかどうかを返す	-9.95406
etrecursionlimit	-9.96128
rank	-9.96176
len	-9.96267
▁dict	-9.96554
prev	-9.96671
depth	-9.96809
を掛けた値が	-9.96889
str	-9.97371
つまりネイピア数	-9.97551
▁bit	-9.97841
c	-9.98002
▁bfs	-9.98478
dice	-9.98501
▁typing	-9.98562
▁v	-9.9861
▁replace	-9.98642
を開いたファイルストリームを	-9.98706
i	-9.98857
をソートした列を	-9.98977
つまり末尾までの	-9.99802
▁30	-9.99942
-1,	-10.0073
26	-10.0138
つまりネイピア数の	-10.0181
浮動小数点数を適用した列を展開し	-10.0186
で割った値	-10.0194
の最小値	-10.0221
3600	-10.0244
を加えた値の列回分の列	-10.0287
を加えた値を返す	-10.033
番目までの部分列に	-10.0346
つまり末尾までの部分列	-10.0373
preorder	-10.0454
を加えた値だけ	-10.0496
▁datetime	-10.0565
inorder	-10.0565
だけ右シフト	-10.0578
の浮動小数点数を	-10.0625
の各要素に	-10.0626
の列	-10.0657
bottom	-10.0692
を引いた値だけ	-10.0713
range	-10.0754
番目とするを	-10.0765
と等しい	-10.0819
▁readlines	-10.0824
な	-10.084
▁to	-10.0877
3(	-10.0879
min	-10.0881
▁top	-10.0905
height	-10.0915
cap	-10.0938
未定値	-10.0969
rev	-10.106
削	-10.1124
除	-10.1124
▁del	-10.1124
の組が	-10.1145
roll	-10.1174
/	-10.1198
▁-1	-10.1267
▁search	-10.1286
▁s	-10.1302
set	-10.1304
▁dijkstra	-10.1343
▁逆順に	-10.136
1024	-10.1365
▁merge	-10.1369
tw	-10.1385
dot	-10.1435
▁18	-10.1437
inv	-10.1454
30	-10.1459
heappush	-10.1484
を加えた値を掛けた値を	-10.1496
)、(	-10.1552
▁3600	-10.1558
delete	-10.1576
.5	-10.1596
番目より大きいとき	-10.1596
'\	-10.1605
番目番目を	-10.1738
split	-10.1779
番目を引いた値を	-10.1779
▁number	-10.1896
keys	-10.19
▁swap	-10.1953
▁16	-10.1954
J	-10.1962
cost	-10.1966
を追加して	-10.2029
の整数値を返す関数を適用した列	-10.2046
番目までの部分列を	-10.2055
(0,	-10.206
と等しい要素の最初の位置を	-10.2064
を掛けた値を加えた値	-10.2077
epsilon	-10.2155
の先頭を出力する	-10.2273
▁Dice	-10.2324
▁Decimal	-10.2324
length	-10.2363
の末尾	-10.2372
▁N	-10.2381
▁a	-10.2403
reversed	-10.2437
の要素をそれぞれ組にした列	-10.2469
を空白で分割した字句列の	-10.2488
整数を適用した列のリストを展開し	-10.2489
▁{}"	-10.253
、0)	-10.2553
▁sin	-10.2579
▁prev	-10.2619
より小さくまたは	-10.2621
座標から	-10.263
の末尾に入力された文字列の整数値	-10.2653
▁ValueError	-10.2685
いて正規表現	-10.2685
▁c	-10.2687
を取り出した値	-10.2709
sum	-10.2731
▁rank	-10.2733
mat	-10.2742
▁"	-10.2791
east	-10.2794
dst	-10.2796
▁tw	-10.2817
▁無限の整数列	-10.2824
を加えた値の最大値を	-10.2835
walk	-10.2842
▁extend	-10.285
rt	-10.29
の浮動小数点数	-10.2906
().	-10.292
▁cos	-10.293
2(	-10.2974
を加えた値の最小値を	-10.2989
<	-10.2993
▁31	-10.3011
を掛けた値を加えた値を返す	-10.3022
▁dice	-10.3022
の逆順	-10.3035
の末尾の	-10.3041
入力された文字列の両端から	-10.3053
で	-10.3072
▁26	-10.3089
▁1000000	-10.3113
▁color	-10.3146
▁10000	-10.3153
の末尾に入力された文字列	-10.3212
-2	-10.3234
,0)	-10.3338
▁value	-10.3352
type	-10.3361
▁ネイピア数の	-10.3365
で割った値に	-10.3391
、(0、1)	-10.3431
の出現回数	-10.3457
番目の最小値を	-10.3473
に挿入できる位置を	-10.3491
▁num	-10.351
▁operator	-10.3545
map	-10.3555
各要素に整数を適用した列を展開し	-10.3561
の整数値から	-10.3573
の文字列を加えた値を出力する	-10.3598
self	-10.3657
番目の先頭	-10.3674
w	-10.3693
の論理積	-10.3707
番目を掛けた値だけ	-10.3715
tail	-10.3718
を挿入する	-10.3718
pow	-10.374
に番号付した組の列の各要素を	-10.3778
を取り出した値を	-10.3835
▁50	-10.3842
、(1、0)	-10.387
bit	-10.3884
▁bottom	-10.3913
▁mergeSort	-10.3962
空白改行を取り除いた文字列	-10.3973
を逆順に	-10.4024
つまり真	-10.4025
の先頭が	-10.4074
部	-10.4087
main	-10.4088
heappop	-10.4094
weight	-10.4112
▁cap	-10.4132
▁functools	-10.415
▁改行文字を間に入れて	-10.4186
leader	-10.4213
il	-10.4235
query	-10.4251
文字で分割した字句列の各要素に	-10.4303
stl	-10.4329
pos	-10.4339
▁distance	-10.436
番目番目の	-10.436
つまり末尾までの部分列を加えた値	-10.4365
abs	-10.4371
ce	-10.4373
上	-10.4405
▁query	-10.4432
,0,	-10.4447
を引いた値番目の末尾に	-10.4529
のキーと値の集まり	-10.4548
-9	-10.4553
を引いた値を掛けた値に	-10.4568
▁"{}"	-10.4609
▁unite	-10.4629
head	-10.4632
[0]	-10.4639
▁500	-10.465
の組番目に	-10.4664
faces	-10.467
▁空文字列	-10.4701
ラ	-10.4734
番目を加えた値に	-10.4738
、(0、-1)	-10.474
init	-10.4762
▁inv	-10.4762
で割った余りを返す	-10.4787
空列	-10.4823
▁100000	-10.4826
.__	-10.4829
▁J	-10.4853
chr	-10.4869
の文字列	-10.4938
▁入力された文字列のリストを	-10.4975
の出現回数が	-10.4975
の整数値を出力する	-10.4977
▁12	-10.4981
の文字列の列を連結した文字列	-10.5005
12	-10.5019
((	-10.5027
番目を引いた値	-10.5032
▁id	-10.506
より小さいかどうかが	-10.5063
sep	-10.5075
2-	-10.5094
▁Edge	-10.5116
番目を引いた値に	-10.5129
の集合を	-10.5145
入力された文字列の浮動小数点数を	-10.5154
辞書	-10.5166
の絶対値を	-10.5196
aise	-10.5214
を引いた値と等しいとき	-10.5215
ーと	-10.5223
なる	-10.5277
コ	-10.5284
[0])	-10.5285
▁make	-10.529
▁rev	-10.5305
Decimal	-10.5337
())	-10.5348
south	-10.5353
▁tree	-10.5381
を順にネイピア数	-10.5389
▁mat	-10.5411
▁pt	-10.5416
-10	-10.5422
prime	-10.5425
▁koch	-10.5508
より小さいかどうかを返す	-10.553
以上の	-10.5531
番目を掛けた値に	-10.5553
count	-10.5573
val	-10.5593
を加えた値までの部分列	-10.5603
の論理積が	-10.5604
norm	-10.5679
[1]	-10.569
complex	-10.5718
Counter	-10.5718
▁rotate	-10.5737
つまり空文字列	-10.5763
の整数値を追加する	-10.5776
object	-10.5792
した	-10.5799
rotate	-10.5846
ssert	-10.5866
らな	-10.5866
([	-10.5873
または	-10.5903
V	-10.5947
で割った余りのとき	-10.6033
hash	-10.6036
番目を加えた値	-10.6049
50	-10.6102
からなる列を返す	-10.6155
の総和を出力する	-10.6164
▁lower	-10.6167
を探して見つかった位置を	-10.62
%(	-10.6245
used	-10.6326
番目の各要素を	-10.6337
▁1000000007	-10.6341
▁13	-10.6358
の先頭の整数値を	-10.6373
空白で分割した字句列の各要素を	-10.6406
の組の列を	-10.6428
番目と等しくないとき	-10.6429
乗を加えた値の	-10.6462
lz	-10.6484
を加えた値未満までの	-10.6565
を引いた値番目だけ	-10.657
番目の整数値	-10.6611
maxsize	-10.6623
挿入する	-10.6641
の整数値に	-10.6689
amma	-10.6726
children	-10.6726
▁at	-10.6728
put	-10.6736
を引いた値を掛けた値を	-10.6739
番目かつ	-10.6765
▁parse	-10.6785
▁1)、(	-10.6805
結	-10.6808
▁stl	-10.6823
からなる列を加えた値を	-10.6825
K	-10.6837
▁func	-10.6885
▁accumulate	-10.691
0>	-10.6917
+1	-10.6917
間隔による部分列	-10.6971
source	-10.6974
▁expose	-10.6974
を掛けた値を引いた値を返す	-10.6993
の排他	-10.7023
lt	-10.7026
M	-10.7032
radians	-10.7058
▁mod	-10.708
▁start	-10.7114
番目と	-10.7122
番目までの部分列	-10.7174
▁iter	-10.7175
の末尾を	-10.72
コン	-10.7229
▁.5	-10.7249
で置き換えた文字列を	-10.7272
番目番目に	-10.7293
カ	-10.7301
500	-10.7313
buffer	-10.7315
bfs	-10.7332
flow	-10.7334
無限大	-10.7399
シ	-10.7402
回分の列	-10.7432
▁read	-10.7453
乗を加えた値を	-10.7469
ネ	-10.7489
Status	-10.7489
ビ	-10.7489
▁isin	-10.7493
mp	-10.7495
▁string	-10.7514
▁norm	-10.7536
なければ	-10.7542
で分割した字句列の各要素を	-10.7566
番目以下のとき	-10.7609
face	-10.7626
cur	-10.7639
child	-10.7666
stance	-10.7667
からなる列の列を	-10.7669
から読み込んだ行の列を	-10.773
の組を追加した集まり	-10.7738
31	-10.7759
▁Segment	-10.7794
番目番目	-10.7829
を探して見つかった位置	-10.7869
を連結した文字列	-10.787
▁exi	-10.789
▁"{}	-10.793
product	-10.794
')	-10.795
座標が	-10.7965
で割った商から	-10.7973
▁random	-10.7978
▁writelines	-10.7983
つまり空列	-10.7988
10000	-10.799
▁weight	-10.7991
▁values	-10.8004
closest	-10.8032
より小さくないとき	-10.8032
push	-10.8044
と等しい要素の最初の位置	-10.8134
0.0	-10.8153
を反転した列を順に	-10.8177
RED	-10.822
だけ右シフトした値を	-10.8221
▁bl	-10.823
▁depth	-10.8249
Point	-10.827
▁roll	-10.8285
▁w	-10.8318
▁head	-10.8367
from	-10.8371
無限の整数列	-10.8397
bel	-10.8398
sink	-10.8414
q	-10.8419
の長さに	-10.8431
を加えた値の列を	-10.8459
を引いた値の絶対値が	-10.849
▁node	-10.8535
で整形した文字列を	-10.8589
整数を適用した列のリスト	-10.8593
item	-10.8606
BLACK	-10.8607
zfill	-10.8607
座標を掛けた値に	-10.8618
▁super	-10.8647
の先頭番目に	-10.8683
空白で分割した字句列	-10.8691
を掛けた値回分の列を	-10.8693
▁factorial	-10.8706
辞書を	-10.871
index	-10.872
intersection	-10.8748
▁height	-10.8756
same	-10.8771
▁preorder	-10.8794
14	-10.8795
behind	-10.8806
NIL	-10.8806
コピー	-10.881
、1)	-10.8814
▁inorder	-10.8816
に挿入できる最後の位置を	-10.8816
を加えた値番目から	-10.8849
west	-10.8859
以下または	-10.8895
番目を掛けた値を	-10.8899
▁((0、0)	-10.89
を引いた値を掛けた値から	-10.8969
iter	-10.8971
heapify	-10.8973
Node	-10.9005
empty	-10.9009
src	-10.9009
で分割した字句列	-10.901
を空白で分割した字句列のリストを	-10.9014
番目の最大値を	-10.9019
つまり入力された文字列の列を	-10.9026
▁ネイピア数が	-10.9032
が最初にマッチする位置	-10.9034
空白文字で分割した字句列の各要素	-10.9047
1001	-10.905
▁combinations	-10.9051
calc	-10.9081
north	-10.9092
,1)	-10.9104
ログラムを	-10.9112
permutations	-10.9112
__(	-10.9127
math	-10.9181
16	-10.9182
▁b	-10.92
of	-10.9215
upper	-10.9216
を引いた値を返す	-10.9226
ンタを	-10.9274
ときの	-10.9287
▁atan	-10.929
▁15	-10.9308
個までの	-10.9321
を開いたファイルストリーム	-10.934
を加えた値までの部分列を	-10.9362
の出現回数を	-10.9416
▁ccw	-10.9424
、(-1、0)	-10.9431
32	-10.9471
番目の先頭を	-10.9474
番目を加えた値の最小値を	-10.9522
割った	-10.9535
の文字列を加えた値に	-10.9544
▁((0、	-10.9585
13	-10.9595
line	-10.9642
▁rec	-10.9657
solve	-10.9678
ord	-10.9683
▁空列	-10.9706
つまり空白文字	-10.9714
▁K	-10.9717
▁pre	-10.9718
)))	-10.9738
▁decimal	-10.9741
▁0、0	-10.9746
フ	-10.9754
▁lt	-10.9797
▁partition	-10.9799
乗だけ	-10.9813
乗が	-10.9828
front	-10.9839
とするとするを	-10.9863
るように	-10.9865
class	-10.9865
with	-10.9865
limit	-10.9865
▁pos	-10.9884
(-	-10.9884
番目を順にネイピア数	-10.9893
番目を加えた値が	-10.9908
を引いた値の最大値を	-10.9982
出力する	-10.9985
で割った商だけ	-11.0002
の最大公約数を	-11.0011
▁expr	-11.0024
op	-11.0065
の長さ未満までの数列の各要素を	-11.0077
の列の総和を出力する	-11.0085
▁paint	-11.0091
りの行末として	-11.0091
ccw	-11.0095
S	-11.0103
ネイピア数とし	-11.0129
に含まれまたは	-11.0188
▁all	-11.0191
より小さくなくまたは	-11.0199
個	-11.0206
'0'	-11.0206
deepcopy	-11.0206
の文字列に	-11.0221
▁空白文字を	-11.0275
[1],	-11.03
▁1.0	-11.0317
last	-11.0321
左	-11.0322
の組で割った余り	-11.033
番目を加えた値から	-11.0341
以下かどうかを返す	-11.036
score	-11.0365
▁1001	-11.0381
▁div	-11.0388
の論理和	-11.04
番目を返す関数を	-11.0418
j	-11.0438
▁clear	-11.044
1000000	-11.0531
で割った値の切り	-11.0549
▁M	-11.0553
itr	-11.056
回分の列を加えた値を	-11.0572
の論理積だけ	-11.0597
の論理積を	-11.0622
▁V	-11.0671
商を展開し	-11.0679
を加えた値番目の末尾に	-11.0705
▁(0、0)	-11.0781
memo	-11.0801
Find	-11.0801
要素をそれぞれ組にした列の各要素	-11.0816
()))	-11.0838
を引いた値より小さいとき	-11.0852
ン	-11.0862
▁delete	-11.0865
15	-11.0881
▁14	-11.0941
▁eval	-11.0944
カル	-11.0944
L	-11.0965
をソートした列を順に	-11.0969
▁17	-11.0992
FLAGS	-11.105
Root	-11.105
zeros	-11.1051
101	-11.1084
▁cur	-11.1089
を引いた値の絶対値を	-11.1097
を掛けた値を引いた値から	-11.1165
を掛けた値を引いた値	-11.1169
▁non	-11.1174
local	-11.1176
を開	-11.1176
番号として	-11.1176
空白で分割した字句列を	-11.1177
adj	-11.122
▁25	-11.1301
▁Graph	-11.1305
treewalk	-11.1307
の絶対値が	-11.1317
Edge	-11.1347
spin	-11.1357
を空白文字で分割した字句列	-11.138
flip	-11.1384
番目で整形した文字列を出力する	-11.1446
'.	-11.1455
unite	-11.1511
**2	-11.1525
でなくかつ	-11.1531
の論理和と	-11.156
く	-11.1564
▁namedtuple	-11.1566
の各要素に整数を適用した列を	-11.1567
▁32	-11.1583
▁bel	-11.1584
keylen	-11.159
つまり無限大	-11.1593
2)	-11.1618
area	-11.162
▁97	-11.1634
で割った値を加えた値を	-11.1647
u	-11.1689
より大きくまたは	-11.1694
▁union	-11.1699
sibling	-11.1699
any	-11.1701
m	-11.1735
▁((-1、0)	-11.1759
をネイピア数とする	-11.178
た	-11.1821
heap	-11.1827
で割った値を加えた値	-11.1829
に含まれかつ	-11.1829
回転する	-11.1834
の要素を右に	-11.1834
と等しくなくまたは	-11.1847
▁heapify	-11.1883
の文字列を	-11.1884
の先頭を引いた値	-11.1884
の列の各要素を	-11.1896
の末尾を除いた部分列	-11.1938
つまりネイピア数から	-11.1938
の順序数から	-11.194
番目と等しくかつ	-11.1942
を連結した文字列を	-11.1961
番目の長さが	-11.1969
内の全ての要素を取り除く	-11.1971
▁south	-11.1976
func	-11.1982
appendleft	-11.1988
▁north	-11.1998
end	-11.2012
を引いた値の絶対値	-11.2038
▁west	-11.2038
▁aoj	-11.211
の位置	-11.211
浮動小数点数を適用した列のリスト	-11.2119
h	-11.2129
▁face	-11.2139
を引いた値番目を掛けた値を	-11.2145
▁sieve	-11.215
(*	-11.2181
番目の列を	-11.2193
▁move	-11.2193
▁array	-11.221
▁0)、(	-11.223
座標を	-11.2244
表	-11.2251
を引いた値を掛けた値を加えた値	-11.2254
乗を加えた値の平方根を	-11.2263
-1])	-11.2294
▁log	-11.2297
W	-11.2299
の先頭を除いた部分列を	-11.233
▁spin	-11.2339
▁create	-11.2346
つまり未定値と等しい	-11.238
からなる列と等しいとき	-11.2381
part	-11.2399
の先頭を引いた値を	-11.2404
▁bin	-11.2409
▁bst	-11.2421
▁enum	-11.2423
を加えた値回分の列	-11.2444
の総和に	-11.2459
check	-11.2464
writelines	-11.2472
の長さより小さいとき	-11.248
▁acos	-11.2557
を引いた値未満までの	-11.2573
を引いた値番目を加えた値を	-11.2576
▁date	-11.2595
▁cost	-11.2601
だけ左シフトした値を	-11.2669
orthogonal	-11.2686
乗を引いた値を	-11.2744
で割った値の整数値を	-11.2796
▁90	-11.2803
},{	-11.2835
積	-11.2866
番目に含まれるとき	-11.2883
)*	-11.2887
▁score	-11.2929
を加えた値より小さいとき	-11.2937
番目までの部分列を加えた値を	-11.2952
inf	-11.2968
pre	-11.2983
quantize	-11.2987
elements	-11.2987
rounding	-11.2987
points	-11.299
乗を加えた値から	-11.304
整数を適用した列の組の列を	-11.3042
st	-11.3052
25	-11.3063
を出力するの列	-11.3069
▁change	-11.3074
座標を掛けた値を加えた値	-11.3074
z	-11.3151
乗の整数値に	-11.3152
番目の長さ	-11.3193
,(0,	-11.3194
の最大公約数	-11.3223
番目を引いた値が	-11.3242
180	-11.3258
乗に対する	-11.3293
dest	-11.3297
coprime	-11.3297
の長さ回分の列を	-11.3297
で割った値の整数値	-11.3301
だけ左シフトした値の論理積のとき	-11.3308
を引いた値の最小値を	-11.3308
をソートした列	-11.3321
つまり未定値の列を	-11.3325
▁east	-11.3333
siz	-11.3348
),(	-11.3449
だけ右シフトした値と	-11.3457
乗を加えた値を返す	-11.3471
fabs	-11.3476
(0、	-11.3482
move	-11.3498
rstrip	-11.3507
has	-11.3532
ソートされた順序を保ったまま	-11.3532
のキーと値の集まりをソートした列	-11.3578
▁Tree	-11.3617
▁auto	-11.3617
▁prop	-11.3646
▁op	-11.3665
(1,	-11.3684
▁val	-11.3696
[2]	-11.3713
なく	-11.3781
番目を展開してを出力する	-11.379
▁insort	-11.3817
を掛けた値を返す	-11.3838
未満までの数列の逆順	-11.3863
番目をネイピア数	-11.388
、-	-11.3881
[2])	-11.3888
▁19	-11.3915
prop	-11.3917
▁app	-11.3938
▁ino	-11.3947
rects	-11.3948
segtree	-11.3949
の各要素をネイピア数	-11.3992
つまりネイピア数番目までの部分列	-11.3998
、0、	-11.4003
▁m	-11.4013
つまり無限の整数列	-11.403
素数を	-11.4038
の集合と	-11.4056
にソート順で	-11.4056
を引いた値番目のとき	-11.4075
の整数値の列	-11.4094
P	-11.4117
を英小文字に変換した文字列を	-11.418
を引いた値番目とする	-11.4184
を引いた値の最小値	-11.4187
を引いた値番目を展開し	-11.4195
を引いた値のビット長	-11.4213
▁lca	-11.4228
を空白文字で分割した字句列を	-11.4236
番目内の	-11.427
▁180	-11.4289
other	-11.4289
connected	-11.4289
lr	-11.429
ink	-11.4292
▁1150	-11.4302
▁postorder	-11.4304
を間に入れて	-11.4335
乗を加えた値に	-11.4347
l	-11.4369
80	-11.4375
番目を引いた値から	-11.4377
の列を返す	-11.4382
を返す関数を	-11.4416
▁2000	-11.4426
を加えた値番目とする	-11.4432
と等しい要素の最初の位置に	-11.4496
を加えた値以下かどうかが	-11.4497
^	-11.4511
(0,0,	-11.4523
各要素に整数を適用した列のリスト	-11.4538
の総和	-11.4557
▁convex	-11.4564
▁40	-11.4573
▁65	-11.4578
(1、0)	-11.4616
の論理和を	-11.4642
parallel	-11.4643
▁propagates	-11.4643
▁heap	-11.4652
の集合のリストを	-11.4652
を掛けた値を加えた値から	-11.4694
reverse	-11.4718
div	-11.4723
contains	-11.4724
を引いた値を掛けた値を引いた値を	-11.4737
▁has	-11.4738
*(	-11.4741
k	-11.4777
つまりネイピア数番目に	-11.4778
を引いた値回分の列を	-11.4784
でない	-11.4801
で割った商を加えた値を	-11.4815
より大きいかどうか	-11.4821
を引いた値乗に対する	-11.483
▁文字列	-11.4832
▁intersect	-11.4854
が最初にマッチする位置を	-11.4876
だけ左シフト	-11.4878
の総和が	-11.4913
の先頭の長さ	-11.4922
default	-11.493
cos	-11.493
97	-11.4938
▁改行せずに空白文字に	-11.4978
を引いた値を掛けた値	-11.4993
空列を	-11.5005
code	-11.501
offset	-11.5011
を加えた値番目を加えた値を	-11.5019
つまり末尾までの部分列を順に	-11.5035
1.05	-11.5046
200	-11.5087
整数	-11.5125
余を	-11.5141
余	-11.5146
vector	-11.5154
座標の	-11.5169
を掛けた値を加えた値が	-11.5177
▁64	-11.5179
座標を掛けた値から	-11.521
番目を掛けた値から	-11.5218
▁front	-11.5243
27	-11.5254
乗を加えた値が	-11.5273
つまり真と等しいとき	-11.5279
の長さより小さくかつ	-11.5283
を加えた値未満までの数列	-11.5305
▁200	-11.5309
▁flow	-11.5315
を現在の日時とする	-11.5321
▁itemgetter	-11.5323
▁101	-11.5334
T	-11.5385
▁24	-11.5389
の絶対値	-11.5389
cache	-11.5391
1111111111111111	-11.5391
INIT	-11.5391
vertices	-11.5391
sci	-11.5392
board	-11.5398
番目を掛けた値を加えた値を	-11.5403
の整数値が	-11.5403
にネイピア数を掛けた値から	-11.5406
番目番目が	-11.5419
の逆順を	-11.5426
▁fib	-11.5459
+1))	-11.5462
▁書式	-11.5487
▁adj	-11.552
だけ左シフトした値との	-11.5548
▁10001	-11.5556
空白改行を取り除いた文字列の列を	-11.5565
lower	-11.5576
cursor	-11.5587
common	-11.5587
ALL	-11.5588
を引いた値番目の最小値に	-11.5595
repeat	-11.5603
minimum	-11.5611
-6	-11.5623
の先頭と等しいとき	-11.5624
の順序数を	-11.5627
sin	-11.5632
▁改行せずに空文字列	-11.5641
▁gen	-11.5648
▁360	-11.5678
▁文字	-11.5715
print	-11.5755
▁S	-11.5758
▁1000000001	-11.5781
3.305785	-11.5787
Masks	-11.5788
Pre	-11.5788
番目を返す関数をキーとして	-11.5789
▁4000	-11.5794
lazy	-11.5797
に空白文字を加えた値に	-11.5829
の和集合	-11.5841
番目でなくかつ	-11.5842
で割った値だけ	-11.5851
maxcap	-11.5854
の排他論理和	-11.5866
▁入力された文字列の整数値	-11.5887
、(1、1)	-11.589
の整数値の列の列を	-11.5901
を英大文字に変換した文字列	-11.598
[2*	-11.5982
▁Matrix	-11.5993
▁4280	-11.6011
を辞書の	-11.6016
の先頭を展開し	-11.6049
segment	-11.6077
の先頭の先頭	-11.6086
番目と等しいかどうかが	-11.609
を探して見つかった位置が	-11.6096
ーマットした文字列	-11.612
を加えた値で割った値を	-11.6156
[0]))	-11.6171
のビット長	-11.6187
の文字列を加えた値	-11.6191
正	-11.6193
▁MyList	-11.62
eqaul	-11.62
▁SegmentTree	-11.62
の順列を順に	-11.6201
の組を返す関数をキーとして	-11.6201
を加えた値未満までの数列のリスト	-11.6206
vid	-11.6221
を加えた値を掛けた値	-11.6232
&	-11.6234
▁In	-11.6244
ソートした列を	-11.6264
入力された文字列の整数値を	-11.6289
空白文字を間に入れて	-11.629
▁dp	-11.6306
INF	-11.6317
の整数値だけ	-11.6322
dp	-11.6369
▁convert	-11.6372
g	-11.6389
▁ネイピア数を	-11.6401
定	-11.6413
▁def	-11.6413
番目を引いた値の絶対値	-11.6417
400	-11.6423
で割った余り番目	-11.6423
*2+1,	-11.6426
の組を返す関数を	-11.643
つまり未定値と等しくかつ	-11.6439
を掛けた値を引いた値で割った値	-11.6446
から読み込んだ行の列	-11.6472
360	-11.6487
とつは真	-11.6489
▁関数	-11.6511
▁contains	-11.6533
▁siz	-11.6553
sorted	-11.6553
low	-11.6561
cnt	-11.6565
▁400	-11.6611
を引いた値より小さくかつ	-11.6615
one	-11.6624
番目の整数値に	-11.663
width	-11.663
つまり空白文字を間に入れて	-11.663
を引いた値と等しくないとき	-11.6632
▁process	-11.6638
座標を引いた値に	-11.6665
▁vector	-11.6683
で割った余り番目を	-11.6705
で分割した字句列を	-11.6711
の最大値と等しい要素の最初の位置	-11.6728
を引いた値を掛けた値を引いた値	-11.6763
▁改行せずに空白文字	-11.6766
を引いた値の列を	-11.6774
▁{}	-11.678
Vector	-11.6812
(0,0)	-11.6816
intersect	-11.6817
の末尾にネイピア数	-11.6821
koch	-11.6822
zero	-11.6823
▁z	-11.6827
つまり文字	-11.6852
の長さ未満までの	-11.6863
▁insertionSort	-11.6873
-1],	-11.6901
[2],	-11.6942
番目と等しくない	-11.6947
を引いた値を掛けた値だけ	-11.6967
つまり集合の列	-11.6991
(0、1)	-11.7013
▁2.0	-11.7063
番目のときの	-11.7066
[-1],	-11.7068
▁MaxFlow	-11.708
切りなしで改行せずに	-11.708
status	-11.708
▁UnionFind	-11.708
hldtop	-11.708
insert	-11.7082
degree	-11.7084
座標を掛けた値を引いた値	-11.7087
we	-11.709
未満までの数列の列の各要素を	-11.7106
を空白で分割した字句列の列を	-11.7106
sn	-11.711
▁80	-11.7121
▁project	-11.7125
▁lcm	-11.7128
と等しいかどうか	-11.7133
整数値に	-11.7134
整数を適用した列の集合	-11.714
の各要素に整数を適用した列を順に	-11.7143
番目または	-11.7178
10001	-11.7182
でなくまたは	-11.7201
▁intersection	-11.721
▁show	-11.722
乗と等しいとき	-11.7233
の排他論理和を	-11.7236
より大きいかどうかを返す	-11.7247
▁h	-11.7265
▁無限の整数列が	-11.7277
つまり	-11.7296
Q	-11.73
▁degree	-11.7308
つまり空文字列を間に入れて	-11.7312
▁det	-11.7314
all	-11.7325
番目を引いた値の	-11.7331
の排他論理和番目に	-11.7348
2.0	-11.7366
-2)	-11.7374
polygon	-11.7376
の末尾の末尾	-11.7389
100000	-11.739
の先頭番目の	-11.7398
queen	-11.7416
の先頭番目を	-11.748
に含まれる	-11.7494
の平方根を返す	-11.7504
の先頭の整数値	-11.7526
balance	-11.7549
rjust	-11.755
▁quicksort	-11.7551
番目を掛けた値	-11.7562
ms	-11.757
の最大値から	-11.7576
した文字列を	-11.759
番目番目の末尾に	-11.7611
update	-11.7627
create	-11.763
start	-11.7632
pv	-11.764
の組と等しいとき	-11.7682
matmul	-11.7695
乗を加えた値	-11.7696
2*	-11.7704
▁27	-11.7724
番目の先頭に	-11.7725
▁compute	-11.7767
の列を順に	-11.7769
から読み込んだ	-11.7794
▁dinic	-11.7797
と等しくないときの	-11.7798
-3	-11.784
を掛けた値を引いた値に	-11.784
を引いた値を掛けた値を加えた値を	-11.7844
(2)	-11.7844
の列の列の列	-11.7851
match	-11.7898
projection	-11.7915
▁power	-11.7926
を英小文字に変換した文字列	-11.7936
64	-11.7937
の先頭だけ	-11.794
を加えた値の文字	-11.7949
の先頭を返す	-11.7959
の浮動小数点数の列	-11.7965
の絶対値を返す	-11.798
▁39	-11.7986
{},	-11.8006
duc	-11.8021
▁repeat	-11.8025
1.0	-11.804
の先頭の長さを	-11.8043
place	-11.8044
fffffff	-11.8044
cycle	-11.8044
▁register	-11.8044
state	-11.8044
masks	-11.8045
を入力された文字列の整数値だけ	-11.8046
stable	-11.8052
▁prim	-11.8057
▁inside	-11.8088
17)	-11.8115
を加えた値を掛けた値に	-11.8124
▁default	-11.8142
を引いた値と	-11.8152
の平方根を	-11.8178
の最大値に	-11.8203
に含まれるかどうか	-11.8204
で整形した文字列	-11.8204
initial	-11.8209
で整形した文字列を返す	-11.8216
gen	-11.8224
▁sub	-11.8269
を加えた値の列	-11.827
▁splay	-11.8272
だけ左シフトした値と	-11.8282
の対数の切り	-11.83
切りなしで	-11.8301
つまりネイピア数が	-11.8336
、(1、-1)	-11.8355
4001	-11.836
np	-11.8401
からなる列を加えた値	-11.8406
]))	-11.8408
番目を探して見つかった位置を	-11.8416
番目以下かどうかが	-11.8472
の値の集まり	-11.8474
▁fill	-11.849
project	-11.8512
replace	-11.8512
1000000007	-11.8514
merge	-11.8514
bst	-11.8516
番目までの部分列の総和	-11.8524
pri	-11.8528
2.	-11.8544
▁P	-11.8548
GetNodes	-11.8564
(10**6)	-11.8564
▁MinCostFlow	-11.8564
lowercase	-11.8564
39	-11.8567
nil	-11.8592
つまり入力された文字列を空白	-11.8611
の最小値に	-11.8634
からなる列の各要素を	-11.8671
forBin	-11.8681
li	-11.8684
のキーの集まり	-11.872
<0	-11.8723
を引いた値を加えた値を	-11.8792
つまり円周率	-11.8806
の先頭を引いた値に	-11.8809
を加えた値と	-11.8815
dict	-11.8818
laz	-11.8822
process	-11.8824
ッ	-11.8834
case	-11.8834
floor	-11.8834
▁入力された文字列の整数値から	-11.8834
pi	-11.8834
番目でない	-11.8836
(1000000)	-11.8838
sp	-11.8841
nums	-11.8852
からなる列を追加して	-11.8854
ネイピア数を展開し	-11.8888
リ	-11.8906
(0、0、0)	-11.8936
)-1)	-11.8942
)}	-11.8946
19	-11.9006
で割った値乗	-11.9037
▁3000	-11.9056
first	-11.9111
▁quick	-11.9111
英大	-11.9112
小文字	-11.9112
priority	-11.9112
maketrans	-11.9112
pair	-11.9112
▁quickSort	-11.9112
切りとして	-11.9112
間隔の数列の各要素を	-11.9112
bisect	-11.9126
sub	-11.9144
black	-11.9145
valuelist	-11.9154
つまり整数	-11.9156
の先頭番目	-11.9167
、(-1、1)	-11.9172
乗で割った値を	-11.9188
の切り	-11.9191
の列の集合を	-11.9191
整数を適用した列をソートした列を	-11.9211
('	-11.9231
番目の整数値を加えた値を	-11.9243
の整数値を加えた値を	-11.9274
番目より小さくかつ	-11.9295
に挿入できる最後の位置	-11.9296
(0、0)	-11.9323
以上かどうか	-11.9337
90	-11.9351
▁slide	-11.9366
を引いた値で割った値を	-11.9394
のリストの列を	-11.94
空白改行を取り除いた文字列を空白	-11.9405
▁"{},{}	-11.9422
の列の総和を	-11.9427
で割った余りを加えた値を	-11.944
に整数を適用した列の組の列を	-11.9448
▁入力された文字列の整数値に	-11.9476
を引いた値以上のとき	-11.9481
array	-11.9481
atan	-11.9484
post	-11.9486
を引いた値番目と等しいとき	-11.95
restore	-11.9502
▁600	-11.9521
▁INF	-11.9528
の列の組を	-11.9554
の長さを返す	-11.9561
未満までの数列の	-11.9579
つまりネイピア数番目を	-11.9594
][1])	-11.9596
▁primes	-11.9624
を加えた値番目だけ	-11.9646
で割った商が	-11.9646
数を	-11.9649
300	-11.9681
番目を引いた値番目に	-11.9686
の長さより小さい	-11.9688
ic	-11.969
year	-11.9692
に含まれなくまたは	-11.9692
WHITE	-11.9692
capacity	-11.9692
situation	-11.9692
▁PushRelabel	-11.9692
に含まれなくかつ	-11.9692
した値が	-11.9693
colors	-11.9698
乗を掛けた値を	-11.9729
▁pri	-11.9732
を加えた値番目の最小値を	-11.9774
の総和から	-11.9781
-8	-11.9782
1911	-11.9818
total	-11.982
bot	-11.9822
convex	-11.9825
で割った余りだけ	-11.9852
番目までの部分列が	-11.9854
の最大値を返す	-11.9867
を引いた値以下のとき	-11.9917
番目の総和	-11.9921
のキーと値の集まりの各要素を	-11.9931
を引いた値の絶対値を返す	-11.9947
▁1868	-11.9954
,0))	-11.9987
をソートした列を連結した文字列	-11.9988
を展開して	-11.9993
として逆順に	-11.9995
randint	-11.9995
isdigit	-11.9997
間隔による部分列内の	-12.0002
番目までの部分列を展開し	-12.0015
▁line	-12.0023
を加えた値までの部分列が	-12.0065
で割った値を返す	-12.0066
の集合	-12.0067
▁low	-12.0091
and	-12.0092
未満までの数列	-12.011
を引いた値番目から	-12.0119
▁i	-12.0127
pop	-12.0137
換した文字列	-12.015
を引いた値の平方根を	-12.0154
を加えた値番目を展開し	-12.0156
つまり末尾までの部分列の整数値を	-12.0156
float	-12.0164
//2)	-12.0183
▁未定値	-12.0191
を掛けた値番目に	-12.0195
▁fact	-12.0198
を加えた値番目のとき	-12.0229
▁L	-12.0235
//6	-12.025
を加えた値までの部分列に	-12.0262
▁round	-12.0273
以下	-12.0276
▁it	-12.0299
info	-12.0304
以上または	-12.0306
angle	-12.0307
seat	-12.0307
inaryIndexedTree	-12.0307
white	-12.0307
ladder	-12.0307
DIVIDED	-12.0307
▁UnionSet	-12.0307
backwards	-12.0307
revolve	-12.0307
最後	-12.0307
FREE	-12.0307
hull	-12.0307
▁AssertionError	-12.0307
▁DFS	-12.0307
lst	-12.0307
pdt	-12.0308
hldid	-12.0308
wt	-12.032
ie	-12.034
を引いた値の最大値	-12.0341
//	-12.0346
に円周率を掛けた値を	-12.036
の末尾を除いた部分列を	-12.0375
の列を連結した文字列を出力する	-12.0378
▁bubble	-12.0386
▁255	-12.0395
の文字列を長さ	-12.0401
乗を引いた値の	-12.0417
▁visit	-12.0427
数文字列の	-12.0439
▁300	-12.0444
つまりネイピア数に	-12.0483
番目の出現回数が	-12.0502
24	-12.0503
を適用した列のリストを	-12.0531
365	-12.0537
で割った値が	-12.0543
seg	-12.0548
factor	-12.0549
O	-12.055
accumulate	-12.0553
.6	-12.0556
0)	-12.0558
に挿入できる位置	-12.0569
▁入力された文字列の整数値の	-12.062
ost	-12.0629
の平方根の整数値に	-12.0631
▁2004	-12.0638
(1<<	-12.0655
▁65535	-12.066
が正規表現	-12.0687
のリスト	-12.0717
40	-12.073
からなる列を加えた値の列を	-12.0738
の先頭を取り出した値を出力する	-12.0742
整数を適用した列のリストの集合を	-12.0751
を掛けた値で割った値を	-12.0752
未満までの数列のリストを	-12.0753
素数	-12.0783
の順序数に	-12.0783
未満までの数列を反転した列	-12.0796
▁63	-12.0803
を加えた値の最小値	-12.0806
▁1911	-12.0818
の長さの	-12.0818
ot	-12.0866
番目以上のとき	-12.0876
間隔による部分列に	-12.0888
▁現在の日時を	-12.0899
28	-12.0908
rec	-12.0912
▁build	-12.0915
番目を引いた値だけ	-12.0927
dual	-12.0927
deg	-12.093
square	-12.0931
▁ms	-12.0936
乗を掛けた値	-12.0937
postorder	-12.0937
make	-12.0938
ON	-12.094
の出現	-12.0946
)//2)	-12.0948
dic	-12.0961
bgn	-12.0963
tour	-12.0963
▁kock	-12.0963
▁"({},{})	-12.0963
findSet	-12.0963
▁Twelvefold	-12.0963
attributes	-12.0963
▁fractions	-12.0963
edmonds	-12.0963
▁setHeap	-12.0963
▁BIT	-12.0963
subset	-12.0964
prewalk	-12.0968
▁hy	-12.0969
つまり未定値と等しくなくかつ	-12.0975
からなる列に入力された文字列	-12.0983
番目までの部分列を順に	-12.0995
文字	-12.1004
のラジアンを	-12.1009
▁空白文字に空白文字を間に入れて	-12.102
+2)	-12.1023
.8	-12.103
を掛けた値番目を	-12.1039
、(-1、-1)	-12.1041
整数を適用した列の組を	-12.1042
mincost	-12.1058
UnionFindTree	-12.1059
(''	-12.106
▁6000	-12.1091
番目の順序数から	-12.1093
乗で割った商を	-12.1099
を掛けた値番目	-12.1113
())))	-12.1137
▁projection	-12.1139
の文字列に空白文字を加えた値に	-12.1189
番目の各要素に整数を適用した列	-12.122
▁29	-12.1238
番目の長さから	-12.1242
if	-12.1246
+1]	-12.1249
▁Q	-12.1256
の集合の長さが	-12.1262
▁queue	-12.1272
を加えた値と等しいとき	-12.1278
2}	-12.1284
\	-12.1287
no	-12.1306
house	-12.1308
つまり未定値と等しくなくまたは	-12.1311
▁空白文字に	-12.1313
[-2],	-12.1316
▁2001	-12.1318
1988	-12.1326
850	-12.1335
matrix	-12.1338
つまり無限大の列	-12.1338
乗の整数値を	-12.1353
に整数を適用した列の総和	-12.1368
の正弦を掛けた値を	-12.1369
▁judge	-12.1384
番目番目を展開し	-12.1419
と等しくないかどうかを返す	-12.142
からなる列に含まれるとき	-12.142
のリストをソートした列を	-12.1431
▁initial	-12.1433
の浮動小数点数の列を	-12.1441
追加して	-12.1448
だけ左シフトした値の論理和	-12.1461
の末尾に入力された文字列を空白	-12.1474
乗を加えた値の平方根を返す	-12.1477
未定値を	-12.1502
▁rightend	-12.1503
のコピーされた列	-12.1509
整数値を	-12.1556
1002	-12.1559
番目の先頭を取り出した値	-12.1593
を掛けた値を加えた値だけ	-12.1599
[1]))	-12.1611
63	-12.1612
17	-12.1618
ans	-12.1619
(3)	-12.1622
以下かどうか	-12.1624
circle	-12.1635
を加えた値を掛けた値を加えた値	-12.164
間隔による部分列の	-12.1652
SI	-12.1655
▁do	-12.1664
turn	-12.1664
lpdtop	-12.1665
lpdnxt	-12.1665
gray	-12.1665
▁statistics	-12.1665
intersected	-12.1665
999900001	-12.1665
▁extgcd	-12.1665
for	-12.167
600	-12.167
]},	-12.1673
▁square	-12.1699
を引いた値を掛けた値を引いた値に	-12.1718
-1-	-12.1739
GRL	-12.1744
days	-12.1745
sizes	-12.175
run	-12.1751
primes	-12.1752
▁Koch	-12.1756
dat	-12.176
▁my	-12.1762
[3]	-12.1766
を引いた値番目を掛けた値に	-12.177
▁same	-12.1791
▁({	-12.1796
で割った値乗を	-12.1799
3650	-12.1803
を展開しての	-12.1817
[4],	-12.182
[3],	-12.1872
▁selection	-12.1874
▁br	-12.1874
を連結した文字列を加えた値	-12.1904
)])	-12.1907
▁dump	-12.1923
3.0	-12.1941
番目を引いた値を返す	-12.1948
現在の日時	-12.195
▁phase	-12.1969
を引いた値より小さい	-12.1976
4)	-12.1994
だけ左シフトした値の論理積	-12.1997
▁1988	-12.201
番目を掛けた値を加えた値	-12.2019
の先頭を返す関数をキーとして	-12.2025
の先頭番目の末尾に	-12.2031
▁laz	-12.2034
つまり未定値と等しくない	-12.2036
に入力された文字列を加えた値に	-12.2042
番目までの	-12.2058
の長さで割った余りを	-12.2062
▁counting	-12.2071
の列をソートした列を	-12.2085
▁1][	-12.209
▁seg	-12.2128
番目までの部分列の総和を	-12.2134
乗を掛けた値に	-12.2143
on	-12.2156
の末尾の先頭	-12.2161
▁erase	-12.2165
を掛けた値を引いた値が	-12.2168
triangle	-12.2173
1867	-12.2174
version	-12.2174
cut	-12.2175
back	-12.2178
返す関数を適用した列のリストを	-12.2179
▁flip	-12.2181
>	-12.2181
show	-12.2185
read	-12.219
乗を加えた値の平方根	-12.2214
順に	-12.2233
座標を掛けた値を加えた値を	-12.2279
▁4.9	-12.2311
▁construct	-12.2317
▁init	-12.233
の列を加えた値を	-12.2337
返す関数を適用した列を展開し	-12.2361
2001	-12.2373
inwalk	-12.239
▁Weighted	-12.242
▁43690	-12.242
▁FenwickTree	-12.242
▁ShortestPath	-12.242
▁104729	-12.242
▁52428	-12.242
▁61680	-12.242
▁65280	-12.242
space	-12.242
▁pushQN	-12.242
nskip	-12.242
▁Roll	-12.242
pskip	-12.242
▁DiGraph	-12.242
OFF	-12.242
mm	-12.2422
tol	-12.2422
▁pprint	-12.2426
番目の長さを	-12.2436
つまりネイピア数を引いた値に	-12.2459
▁(0、1)	-12.2477
番目の整数値が	-12.2492
より大きいかどうかが	-12.2511
ルムを	-12.2514
▁256	-12.2514
1250	-12.2554
roots	-12.2561
の浮動小数点数を返す	-12.2562
[5],	-12.2581
間隔による部分列を加えた値に	-12.2601
を掛けた値より小さいとき	-12.2605
整数を適用した列をソートした列	-12.2612
group	-12.2628
▁円周率に	-12.2631
0.00001	-12.2638
を加えた値を掛けた値を出力する	-12.2647
を適用した列のリストを加えた値	-12.2652
▁1867	-12.2667
+1],	-12.2676
▁post	-12.2709
の長さを引いた値	-12.2709
▁q	-12.2714
▁translate	-12.2749
▁rdfs	-12.2786
をネイピア数の	-12.2792
を掛けた値に円周率を掛けた値	-12.2799
に整数を適用した列の集合	-12.2806
と等しいかどうかに	-12.2808
▁((0、-1)	-12.2814
▁0、1	-12.2815
より小さく	-12.2817
を加えた値で整形した文字列を	-12.2818
まるとき	-12.282
TOP	-12.282
|(1<<	-12.282
/(2*	-12.2823
つまり無限大と等しくないとき	-12.2831
を引いた値の絶対値で割った値	-12.2834
つまりネイピア数番目	-12.2835
の出現回数に	-12.284
▁2147483647	-12.2858
▁0、1、2	-12.2862
▁zero	-12.2864
*2+2,(	-12.2868
の末尾から	-12.2893
▁walk	-12.2895
の余弦を掛けた値を加えた値	-12.2899
▁reflection	-12.291
だけ右シフトした値	-12.2929
▁(0、	-12.2958
座標を引いた値を	-12.2973
▁45	-12.2988
▁term	-12.2989
▁warshall	-12.2989
65	-12.3007
**2-	-12.3022
個までの順列	-12.3041
125	-12.3053
▁bot	-12.3055
番目を引いた値番目を	-12.3062
が全て数字	-12.3074
R	-12.3087
stack	-12.3103
の末尾にネイピア数の	-12.3107
1925	-12.3109
を引いた値乗	-12.3114
sieve	-12.3118
string	-12.3119
parents	-12.3124
▁link	-12.3124
▁3.0	-12.3128
▁leftend	-12.3129
▁7200	-12.3135
122	-12.3161
を引いた値を掛けた値が	-12.3172
を引いた値番目の先頭	-12.319
で割った商番目を	-12.3195
番目の末尾にネイピア数	-12.3234
ial	-12.3235
GetNeighbors	-12.3237
tangent	-12.3237
hldnxt	-12.3237
minSpanningTree	-12.3237
▁DisjointSets	-12.3237
cards	-12.3237
inoprint	-12.3238
renew	-12.3238
preprint	-12.3239
answers	-12.3239
の最大公約数で割った商を返す	-12.3241
▁1000000000	-12.3252
つまり入力された文字列の両端から	-12.3253
番目までの部分列の各要素を	-12.3256
([0]*	-12.326
で割った値の	-12.3267
▁0、0、0	-12.3269
を掛けた値の最大値を	-12.3273
vs	-12.3277
で置き換えた文字列を出力する	-12.3278
つまり末尾までの部分列の列を	-12.3283
を加えた値までの部分列の整数値	-12.3283
▁fc	-12.3285
▁28	-12.3296
▁diff	-12.3299
で割った商を返す	-12.3302
の文字列で置き換えた文字列を	-12.3316
{	-12.3332
▁1925	-12.3373
つまり辞書	-12.3389
つまりネイピア数番目が	-12.3411
を適用した列を連結した文字列	-12.3443
|	-12.346
、(0、	-12.3468
を引いた値番目を引いた値	-12.3477
▁contain	-12.3483
▁segment	-12.3489
番目の最大値	-12.3502
の組に含まれるとき	-12.3503
部分	-12.3511
▁GCD	-12.3554
で割った商を加えた値	-12.3564
▁st	-12.3569
4000	-12.3577
rect	-12.3587
座標を引いた値を掛けた値	-12.359
)//2,	-12.3593
heavy	-12.3601
diff	-12.3607
operator	-12.3618
acos	-12.362
▁37	-12.3624
を引いた値以下かつ	-12.3624
+1])	-12.3634
番目の整数値番目	-12.3637
▁365	-12.365
close	-12.3671
difference	-12.3671
を掛けた値の整数値	-12.3673
番目の整数値から	-12.3683
][0])	-12.3733
を連結した文字列を返す	-12.3742
((0,	-12.3748
整数を適用した列の列を	-12.3806
を引いた値の絶対値に	-12.3841
の論理積でないとき	-12.3851
のリストを展開し	-12.3862
▁10000000000	-12.3875
,2)	-12.3882
数	-12.3897
▁0.00001	-12.3917
番目番目のとき	-12.3926
,(-	-12.3932
を引いた値を掛けた値を加えた値に	-12.3937
[1]-	-12.3946
▁k	-12.3951
つまり偽の列	-12.396
の文字列の列を	-12.4009
のコピー	-12.401
番目の列	-12.4018
▁days	-12.4025
座標で整形した文字列	-12.4037
に整数を適用した列の組を	-12.4037
forCin	-12.4064
▁black	-12.4072
▁prime	-12.41
入力された文字列の整数値	-12.4102
番目番目だけ	-12.4107
able	-12.4124
haystack	-12.4126
isSameSet	-12.4126
io	-12.4126
needle	-12.4126
▁Exception	-12.4126
▁RadixHeap	-12.4126
▁fileinput	-12.4126
排他論理和のビット長番目の末尾に	-12.4126
の部分集合のとき	-12.4126
▁Digraph	-12.4126
minus	-12.4126
つまり空白文字と等しい	-12.4128
▁cmath	-12.4128
を引いた値の整数	-12.413
remove	-12.4139
▁df	-12.4143
番目までの部分列の整数値を	-12.4152
1000000001	-12.4159
の先頭を加えた値を	-12.42
を引いた値以下かどうかが	-12.4222
の排他論理和が	-12.4232
の長さを引いた値に	-12.4243
の最大値の最大値を	-12.425
を掛けた値を加えた値の最小値を	-12.4252
、(0、2)	-12.4252
miny	-12.4253
を掛けた値と	-12.4259
番目の先頭番目の	-12.4268
▁stack	-12.4274
つまりネイピア数番目から	-12.4275
だけ左シフトした値回分の列	-12.4307
▁bs	-12.434
10010	-12.435
▁円周率を	-12.4357
▁3.141592653589	-12.4403
を引いた値乗を	-12.4408
の長さだけ	-12.4441
の組番目を	-12.4453
ard	-12.4455
で割った値を引いた値を掛けた値	-12.4523
偽	-12.453
の先頭の先頭を	-12.4538
550	-12.454
を長さ	-12.454
を円周率	-12.455
の整数値を引いた値	-12.4559
)+	-12.4561
100001	-12.4579
ter	-12.4597
、0、0、0)	-12.4598
つまり未定値と等しく	-12.4601
つまり逆順に	-12.4602
数文字列内の	-12.4602
の長さの最小値	-12.4608
▁無限大を	-12.4609
up	-12.4614
を引いた値番目の最小値を	-12.462
▁現在の日時が	-12.4622
で割った値乗の整数値に	-12.4629
*2+2,	-12.4633
150	-12.4647
の両端キューの列	-12.4649
の先頭を返す関数を	-12.4657
を追加するの列	-12.4668
translate	-12.4687
phase	-12.4689
convert	-12.4696
を引いた値で割った値に	-12.4702
it	-12.4706
から空白改行を取り除いた文字列	-12.471
で割った商を掛けた値に	-12.4714
の論理積番目の	-12.4716
▁factor	-12.4722
の最小値から	-12.4758
ch	-12.4768
の順序数	-12.478
▁50000	-12.479
つまり集合	-12.4793
の組の列	-12.4813
の先頭を掛けた値を引いた値を	-12.4818
(5)	-12.4846
を空白で分割した字句列の集合	-12.4854
ータ	-12.488
番目の列の総和	-12.4892
にネイピア数を掛けた値を引いた値	-12.4906
のキーの集まりの	-12.4913
▁dat	-12.496
▁parser	-12.4972
2000	-12.4977
の正弦を掛けた値を加えた値	-12.4984
を加えた値の整数値	-12.4992
▁GRL	-12.4992
番目までの部分列を加えた値に	-12.5003
乗で割った商	-12.5023
を掛けた値と等しいとき	-12.5028
▁bomb	-12.5038
**2+	-12.5048
つまり空辞書の列	-12.5052
空文字列を間に入れて	-12.5059
以下のときの	-12.507
番目と等しい要素の最初の位置	-12.5083
、(0、0)	-12.5083
own	-12.5098
▁ext	-12.5102
▁andrew	-12.5102
cddep	-12.5102
cdused	-12.5102
text	-12.5102
curve	-12.5102
leftChild	-12.5102
rightChild	-12.5102
▁shellSort	-12.5102
▁MaxHeapify	-12.5102
▁TypeVar	-12.5102
▁setWeight	-12.5102
allpattern	-12.5102
▁IndexError	-12.5102
▁quit	-12.5102
DisjointSetUnion	-12.5102
wait	-12.5102
negative	-12.5102
positive	-12.5102
rho	-12.5102
▁cls	-12.5102
pointer	-12.5102
▁Cond	-12.5102
trongly	-12.5102
gg	-12.5102
の平方根の切り	-12.5103
can	-12.5104
でなければ	-12.5104
forAin	-12.5106
▁vc	-12.5109
番目までの部分列の最小値	-12.5112
から読み込んだ一行の末尾	-12.5117
の絶対値で割った値を	-12.5117
(2、3)	-12.5118
の最大公約数で割った商に	-12.5122
番目と等しい要素の最初の位置を	-12.5124
setdefault	-12.5126
+1,1)	-12.5131
ての要素をそれぞれ組にした列	-12.5138
oll	-12.5139
▁deg	-12.5152
で割った余りの列を	-12.5174
の平方根	-12.5209
[3])	-12.5216
に挿入できる位置から	-12.522
▁binary	-12.5229
slope	-12.5238
集合	-12.5241
fact	-12.528
▁parents	-12.5281
itemgetter	-12.5284
datetime	-12.5286
dijkstra	-12.5286
lca	-12.5287
の論理積と	-12.5293
▁50001	-12.5299
を掛けた値の列の総和を	-12.5326
0.8	-12.533
円周率	-12.5333
▁switch	-12.537
の先頭と	-12.5385
▁999999	-12.5386
((0、0)	-12.5392
▁fibonacci	-12.5402
(1、2)	-12.5405
"{}	-12.5406
と等しく	-12.5411
128	-12.5458
51	-12.5459
▁空辞書	-12.5463
乗より小さいとき	-12.5465
▁shortest	-12.5474
の逆順を展開して	-12.5478
512	-12.5497
、2、3、4、5、6、7、8、9	-12.5516
番目を引いた値の絶対値の	-12.5541
(0,1)	-12.5557
140	-12.5561
からなる列の集合	-12.5562
(1、1)	-12.5565
▁minimum	-12.5566
番目の整数値の列を	-12.5575
をソートした列の	-12.5599
で割った余り番目に	-12.56
FRONT	-12.5628
▁改行文字を	-12.5628
つまり改行文字を間に入れて	-12.5628
suit	-12.5628
にマッチした	-12.5629
(0、0、0、0、0、0、0	-12.563
isalpha	-12.5631
-1][	-12.5655
][1]	-12.5655
に円周率を掛けた値に	-12.5658
}:	-12.5703
pe	-12.5717
乗を返す	-12.572
1.1	-12.5738
▁gindex	-12.5756
乗を引いた値	-12.5771
空白文字	-12.5775
▁cnt	-12.579
を加えた値で割った余りが	-12.5791
999999	-12.5805
mul	-12.581
つまりネイピア数番目の列を	-12.5814
の文字列を返す	-12.5823
▁9.8	-12.5825
▁ネイピア数から	-12.5828
整数値	-12.5832
(2*	-12.5836
co	-12.5846
番目以下かつ	-12.5849
▁sgn	-12.5854
▁conv	-12.5855
lcs	-12.5863
を引いた値と等しくかつ	-12.5869
command	-12.5876
1870	-12.5882
loop	-12.5884
rad	-12.5887
discard	-12.5891
output	-12.5892
switch	-12.5894
,3)	-12.5895
の先頭番目が	-12.5899
▁9900001	-12.5922
▁version	-12.5977
が全てが真のとき	-12.5987
番目の先頭を加えた値を	-12.6003
▁decode	-12.6035
▁chain	-12.6037
▁hash	-12.6045
▁((0、1)	-12.6045
▁380	-12.6134
と等しい要素の最初の位置番目	-12.614
▁125	-12.615
▁整数の	-12.6165
▁BinaryTree	-12.6184
初	-12.6184
FaceValue	-12.6184
LEFT	-12.6184
MOVE	-12.6184
▁rootedTrees	-12.6184
floyd	-12.6184
odd	-12.6184
penalty	-12.6184
vertex	-12.6184
▁pushBack	-12.6184
leaf	-12.6184
possible	-12.6184
}:{	-12.6184
rem	-12.6184
、(2、0)	-12.6184
card	-12.6185
▁rightRotate	-12.6185
▁leftRotate	-12.6185
つまり空列と等しくない	-12.6187
▁invr	-12.619
の論理積かつ	-12.6194
を適用した列を	-12.6196
ンを	-12.6198
の末尾に空文字列を間に入れて	-12.6199
番目より大きいかどうかが	-12.6199
▁200000	-12.6219
2244	-12.622
,10**9	-12.6228
を引いた値だけ左シフトした値	-12.6232
の最大値が	-12.6245
回分の列の各要素を	-12.6245
の正弦を掛けた値	-12.6254
▁ge	-12.6256
を加えた値番目の最大値を	-12.6258
の整数値を加えた値	-12.6261
と等しいかどうか番目を出力する	-12.6268
番目の論理積が	-12.6296
乗で割った値	-12.6317
+(	-12.6322
▁BFS	-12.633
ータを	-12.6338
を掛けた値の列を	-12.6363
の長さ回分の列	-12.6383
番目の文字列を加えた値	-12.6386
▁現在の日時の	-12.6392
29	-12.64
を入力された文字列	-12.6402
solved	-12.642
番目の先頭から	-12.6437
を引いた値で割った商	-12.6445
を掛けた値の列の総和を出力する	-12.6457
番目の最小値	-12.6476
▁output	-12.6485
▁discard	-12.6486
文字列	-12.6487
の先頭を除いた部分列の集合	-12.6491
入した整数値	-12.6494
を空文字列で置き換えた文字列	-12.6512
enumerate	-12.6538
番目の末尾	-12.6538
▁cut	-12.6552
9.8	-12.6562
空辞書を	-12.6565
erase	-12.6567
の列を連結した文字列を	-12.6576
の長さ未満までの数列	-12.6579
log	-12.659
-1))	-12.6635
を加えた値未満までの数列を	-12.6637
160	-12.6646
▁T	-12.6673
つまり末尾までの部分列の総和	-12.6673
番目の列の総和を	-12.6682
*2	-12.6684
乗を掛けた値で割った値	-12.6687
で割った余りでないとき	-12.6692
で分割した字句列の	-12.6692
[0]+	-12.6694
▁fix	-12.6714
を空文字列で置き換えた文字列を	-12.6736
真	-12.6752
を加えた値番目の整数値	-12.6754
58	-12.6755
50001	-12.6759
ア	-12.6772
ファ	-12.6772
の上位	-12.6772
bool	-12.6772
weekday	-12.6772
でなく	-12.6772
BOTTOM	-12.6772
つまり末尾までの部分列を長さ	-12.6772
▁0.8	-12.6773
▁入力された文字列の逆順	-12.6773
の各値を	-12.6775
の長さで割った値	-12.6777
数と	-12.6778
▁fil	-12.6784
rm	-12.6786
の余弦を掛けた値	-12.6793
findall	-12.6795
乗の列を	-12.6804
空文字列	-12.6809
番目の総和を	-12.6812
の先頭を取り出した値の整数値を	-12.6816
を加えた値の文字列	-12.6821
番目番目の長さが	-12.6826
▁answer	-12.6826
▁insertion	-12.6828
▁drop	-12.6828
▁Line	-12.6829
islower	-12.6835
の最小値を展開し	-12.6852
の列の最大値	-12.6853
つまり現在の日時番目	-12.6857
▁heavy	-12.687
乗を引いた値に	-12.6877
を引いた値番目を引いた値が	-12.6879
▁isPrime	-12.6913
▁comb	-12.6925
座標を引いた値の	-12.6966
を掛けた値に円周率を掛けた値を	-12.6973
})	-12.6975
le	-12.6993
から空白改行を取り除いた文字列を	-12.6995
ーマットした文字列を	-12.7004
した文字列	-12.7017
▁100001	-12.7039
1520	-12.7044
▁group	-12.706
を展開してで整形した文字列	-12.7088
[4]	-12.7093
▁match	-12.7094
[7:]))	-12.7149
番目を引いた値の列を	-12.7165
日の日時を	-12.7175
の最小公倍数を	-12.7185
[0]-	-12.719
▁{}:	-12.719
からなる列と	-12.7195
番目で割った値を加えた値	-12.7213
U	-12.723
の最小値を引いた値	-12.7232
▁kruskal	-12.7232
▁Fraction	-12.7232
valid	-12.7251
330	-12.7253
heapq	-12.7265
sign	-12.7266
encode	-12.7267
inside	-12.7286
にネイピア数に	-12.7296
を連結した文字列の整数値を	-12.7316
の論理積の長さ	-12.7354
▁128	-12.7374
)]))	-12.7387
new	-12.7395
▁1000000000000	-12.7397
fold	-12.7397
surfaces	-12.7397
▁Num	-12.7397
cdpar	-12.7397
eighbor	-12.7397
▁HopcroftKarp	-12.7397
▁maxHeapify	-12.7397
▁RMQ	-12.7397
▁compress	-12.7397
▁orientation	-12.7397
meFactorization	-12.7397
AddNode	-12.7397
▁paintout	-12.7397
connection	-12.7397
つまり改行文字を取り除いた文字列	-12.7398
番目で割った値を返す関数を	-12.7398
cacheq	-12.7398
steps	-12.7399
commands	-12.74
▁wi	-12.7401
▁vi	-12.7402
word	-12.7404
//2,	-12.7406
ンの各要素を	-12.7411
45	-12.7413
[1]+	-12.7415
(*[	-12.744
整数値乗	-12.7475
整数値を出力する	-12.7482
OT	-12.7497
の先頭を除いた部分列を展開し	-12.7509
の列の長さ	-12.7524
+2]	-12.7524
▁encode	-12.753
だけ左シフトした値を加えた値を	-12.7532
番目を引いた値を掛けた値から	-12.7534
▁W	-12.7544
つまりネイピア数を引いた値を	-12.7552
▁Queue	-12.7561
▁prepare	-12.7561
で割った商より大きいとき	-12.7564
▁入力された文字列内の	-12.7566
番目を掛けた値を引いた値を	-12.7569
の最小公倍数	-12.7591
を加えた値を引いた値を	-12.7594
▁辞書の	-12.7629
5)	-12.7672
▁le	-12.7677
番目を引いた値の絶対値を	-12.7704
の列を展開し	-12.7705
を加えた値の列の最小値	-12.7706
の列の総和を返す	-12.7712
)*(	-12.7765
番目を加えた値番目	-12.7767
▁euler	-12.7778
ing	-12.7781
の先頭のとき	-12.7804
▁triangle	-12.7818
をソートした列を連結した文字列を	-12.784
つまり偽の列の列	-12.7841
[0]}	-12.7844
▁(1、1)	-12.7854
▁rot	-12.7856
{}"	-12.7858
を加えた値までの部分列の各要素に	-12.7859
▁150	-12.7877
未満までの数列と	-12.7878
▁1.1	-12.7893
で集約した列	-12.7943
番目の列の最小値を	-12.7943
▁無限の整数列の	-12.795
ネイピア数を出力する	-12.799
[2]],	-12.7991
より小さいかどうか番目を出力する	-12.8
の平方根の整数値を	-12.8004
を引いた値をネイピア数とする	-12.8005
format	-12.801
base	-12.8017
▁550	-12.8018
nodetype	-12.8019
,0,0,	-12.8022
180.0	-12.8041
copy	-12.8043
が全て	-12.8052
▁test	-12.8055
dinic	-12.8056
Matrix	-12.8057
と等しい要素の最初の位置番目を	-12.8058
det	-12.8058
パ	-12.8064
より大きいかどうかの列が全てが真	-12.8064
+1,0,0,	-12.8064
(10000)	-12.8067
▁100)、(	-12.8087
整数を適用した列の総和を	-12.8093
つまり入力された文字列のリスト	-12.8099
を加えた値を掛けた値だけ	-12.8101
、0、-	-12.8103
を掛けた値の最小値	-12.8104
-2],	-12.811
▁Dinic	-12.8128
▁binarySearch	-12.8128
より小さいかどうか	-12.8138
と等しいかどうかの列が全てが真	-12.8143
lambdaC	-12.8147
番目の最大公約数を	-12.8152
つまり末尾までの部分列の整数値	-12.8155
▁10)、(	-12.8161
&1)	-12.8176
と等しいかどうかの列の総和	-12.8179
を加えた値が最初にマッチする位置	-12.8184
の整数値の列をソートした列を	-12.8266
の整数値番目に	-12.827
▁140	-12.828
の各要素に整数を適用した列の総和	-12.8284
を探して見つかった位置を出力する	-12.8298
番目番目の先頭	-12.8337
を適用した列のリスト	-12.8344
▁fibo	-12.8355
▁bubbleSort	-12.8355
▁warshallFloyd	-12.8355
座標を引いた値	-12.8371
[1]}	-12.8377
-4	-12.8406
▁EQ	-12.8416
の長さを加えた値までの部分列	-12.8431
,5)	-12.8433
▁1912	-12.8456
ネイピア数の	-12.8457
▁total	-12.8466
▁direction	-12.8473
を加えた値番目を加えた値	-12.8505
番目にネイピア数の	-12.8511
番目の絶対値	-12.8538
を適用した列のリストの列を	-12.8543
から読み込んだ一行の整数値の列を	-12.8548
の先頭を掛けた値を引いた値	-12.8576
1<<	-12.8586
▁WeightedEdge	-12.8592
分	-12.8602
番目の文字列を加えた値に	-12.8613
BinarySearchTree	-12.8614
番目の先頭の	-12.8625
▁36	-12.8626
番目の論理積	-12.864
▁o	-12.8664
数の論理積	-12.8664
lines	-12.8686
▁birth	-12.8695
▁"{}:	-12.8709
1、0、0)	-12.872
ll	-12.8722
12)	-12.8726
(0、0、0、0)	-12.8746
の出現回数の列	-12.8752
を加えた値の文字を	-12.8772
bound	-12.8777
MeldableHeap	-12.8778
longest	-12.8778
correct	-12.8778
members	-12.8778
146097	-12.8778
team	-12.8778
meld	-12.8778
throw	-12.8778
▁countingSort	-12.8778
block	-12.8778
▁KMP	-12.8778
▁diceClass	-12.8778
baggage	-12.8778
▁(0、0、-1、1	-12.8778
uppercase	-12.8779
seconds	-12.878
▁car	-12.8781
"{}:"	-12.8781
、-1、1)	-12.8781
queens	-12.8781
ri	-12.8784
のキーの集まりに含まれるとき	-12.8784
とネイピア数の排他論理和	-12.8784
polygons	-12.8784
を適用した列のリストを展開し	-12.8784
の最小値の最大値	-12.8785
test	-12.8788
番目を加えた値の列の最大値を	-12.8792
番目の列の最大値を	-12.8793
つまり末尾までの部分列の各要素に	-12.8793
▁appy	-12.8794
ze	-12.8794
番目の浮動小数点数	-12.8795
(100000)	-12.8796
ff	-12.8798
を引いた値を掛けた値の	-12.8805
▁appx	-12.8806
ws	-12.8811
を引いた値の最大値番目を	-12.8813
RIGHT	-12.8818
▁1200	-12.8823
を引いた値番目とするを	-12.8829
▁enqueue	-12.8833
coordinates	-12.8847
1868	-12.8848
death	-12.8848
を引いた値番目かつ	-12.885
under	-12.8856
off	-12.8856
▁dual	-12.8857
birth	-12.8862
bomb	-12.8871
と等しくないかどうか	-12.8872
build	-12.8884
2020	-12.8891
番目のキーと値の集まり	-12.8893
を加えた値で割った商を	-12.8902
で整形した文字列の列	-12.891
座標を加えた値	-12.8911
の末尾を返す	-12.8916
の絶対値に	-12.8931
inarySearchTree	-12.8945
の最小値だけ	-12.8945
))))	-12.8946
を加えた値以下かつ	-12.8951
を引いた値と等しくまたは	-12.8965
▁reconstruct	-12.8968
空文字列を	-12.898
番目の整数値だけ	-12.8989
展開してを出力する	-12.9001
▁1989	-12.9005
▁1926	-12.9007
を引いた値番目を引いた値に	-12.9008
1150	-12.9029
**2)	-12.9039
いとき	-12.9042
165	-12.9043
の日付	-12.9043
の逆順と等しいとき	-12.906
+2	-12.9072
の先頭の先頭に	-12.9076
番目を引いた値を掛けた値	-12.908
を正規表現	-12.9084
にネイピア数を掛けた値を加えた値	-12.9089
▁ネイピア数に	-12.91
▁999999999	-12.9103
番目を掛けた値が	-12.9109
番目の最大値を加えた値を	-12.9114
つまり真の列	-12.9119
を加えた値を掛けた値番目	-12.9139
の整数値を返す	-12.9142
idx	-12.9146
を引いた値番目を引いた値を	-12.9149
]-1])	-12.9149
109	-12.9159
列を展開してを出力する	-12.9163
rp	-12.9166
▁48	-12.9176
▁rad	-12.9177
番目を加えた値を返す	-12.9182
▁51	-12.9188
▁combination	-12.9203
(4,	-12.9204
を加えた値で割った余り	-12.921
▁selectionSort	-12.9219
▁Check	-12.9219
+2,	-12.922
を加えた値で割った余りを	-12.9234
番目の文字列を	-12.924
連結した文字列を出力する	-12.9242
番目までの部分列の	-12.9252
で割った値から	-12.9252
、5、1)	-12.9294
番目と等しくなくかつ	-12.931
入力された文字列のリスト	-12.9311
▁1400	-12.9319
で分割した字句列の組を	-12.9329
の列の総和	-12.9448
105	-12.9482
で割った値を引いた値	-12.9499
の末尾が	-12.9504
▁((-	-12.9514
に置き換えた文字列を	-12.9519
▁board	-12.952
の余弦を掛けた値を引いた値	-12.9524
[0]),	-12.9528
の先頭を引いた値の	-12.9537
の整数値の列の総和	-12.9545
の長さと等しく	-12.9545
にマッチ	-12.9547
label	-12.9547
(200000)	-12.9547
の全てが英小文字のとき	-12.9548
を適用した列を展開し	-12.9548
の最大公約数で割った商を	-12.9548
で割った余りを返す関数を	-12.955
▁(-1、1、0、0	-12.955
,1.0)	-12.9551
[1]])	-12.9561
▁2000000	-12.9561
を加えた値の文字列を加えた値を	-12.9562
、256、	-12.9562
の絶対値と	-12.9562
整数を適用した列を展開して	-12.9563
の文字列で置き換えた文字列	-12.9563
の整数値未満までの数列の各要素を	-12.9566
でない番目	-12.9568
▁')])	-12.9569
db	-12.9571
の文字の列を	-12.9582
(0,0,0)	-12.9598
▁180.0	-12.9602
を探して見つかった位置のとき	-12.9603
番目をソート	-12.9606
、(0、-2)	-12.9607
ソートした列を展開し	-12.9615
▁52	-12.9616
▁5)、(	-12.9616
で分割した文字列リストを	-12.9618
▁trac	-12.9621
の全てが英大文字のとき	-12.9627
1111	-12.9629
で割った商の最小値	-12.9633
を引いた値番目の最大値を	-12.9636
の集合から	-12.9662
[1:],	-12.9674
からなる辞書の	-12.9675
hld	-12.9678
に挿入できる位置番目	-12.9696
乗の列の総和を	-12.9704
▁sign	-12.9712
つまり現在の日時の	-12.9713
に対応する値を	-12.973
-3)	-12.9744
を引いた値未満までの数列	-12.9745
step	-12.9749
番目の末尾を	-12.975
に挿入できる最後の位置から	-12.9751
の列の最小値を	-12.9755
▁270	-12.9761
mask	-12.9762
50021	-12.9762
を加えた値の文字列の長さ	-12.9768
からなる列の集合を	-12.977
zip	-12.9778
shortest	-12.978
dump	-12.979
つまり現在の日時番目の	-12.9799
の末尾だけ	-12.9815
の集合のリストをソートした列を	-12.9828
values	-12.9838
の先頭を加えた値	-12.9858
を掛けた値以上の	-12.9871
の末尾に入力された文字列を	-12.9872
未満までの数列のリスト	-12.9876
番目の先頭を加えた値	-12.9898
の列に	-12.99
乗を加えた値で割った値	-12.9934
[2]))	-12.9954
123	-12.9956
を掛けた値を加えた値を引いた値を	-12.9976
▁68	-12.9986
を掛けた値のリスト	-13.0008
の先頭の長さ回分の列	-13.0009
▁manhattan	-13.0014
rot	-13.0015
のリストを加えた値を	-13.0016
に整数を適用した列のリストの総和	-13.0017
の順序数を引いた値	-13.0088
番目の文字列に空白文字を加えた値	-13.0094
の文字列の列を連結した文字列を	-13.0101
(4)	-13.0116
を引いた値までの部分列	-13.0119
の文字列の長さが	-13.013
*5	-13.0133
の先頭を掛けた値を加えた値を	-13.0141
▁入力された文字列の文字列を	-13.0152
つまりネイピア数の先頭	-13.0155
に円周率を掛けた値	-13.0157
▁outer	-13.0165
an	-13.0176
▁none	-13.0183
長	-13.0183
60.0	-13.0191
を掛けた値を引いた値の絶対値が	-13.0209
+[	-13.021
を加えた値を掛けた値から	-13.023
を連結した文字列の整数値	-13.0264
*3	-13.0271
▁under	-13.029
を空白文字	-13.0295
つまり末尾までの部分列の総和を	-13.0298
,0.0)	-13.0341
[-1][1]	-13.0345
imum	-13.0377
を改行文字	-13.0377
Sum	-13.0378
ase	-13.038
の正弦に	-13.038
ERO	-13.0381
▁debug	-13.0381
edeges	-13.0381
ipartiteMatching	-13.0381
month	-13.0381
▁compare	-13.0381
2、3、4、5、6、7、8、0)	-13.0381
contents	-13.0381
factorize	-13.0381
▁acce	-13.0381
18680908	-13.0381
FACES	-13.0381
indowAggregation	-13.0381
negativeCycle	-13.0381
successor	-13.0381
▁calendar	-13.0381
▁postParse	-13.0381
▁preParse	-13.0381
▁setDepth	-13.0381
identical	-13.0381
knapsack	-13.0381
▁Surface	-13.0381
▁inParse	-13.0381
carrot	-13.0381
conjugate	-13.0381
hist	-13.0381
shape	-13.0381
shifter	-13.0381
▁setHeight	-13.0381
matching	-13.0381
etin	-13.0381
▁heapreplace	-13.0381
articulations	-13.0381
bounds	-13.0382
bridges	-13.0382
▁Era	-13.0382
{}:{}	-13.0383
4、3)	-13.0383
ding	-13.0384
checked	-13.0384
度順の列の先頭の先頭	-13.0385
(0,-1)	-13.0386
つまり空白文字と等しくない	-13.0389
のキーの集まりの各要素を	-13.0392
49999	-13.0393
を引いた値の絶対値を掛けた値を	-13.0395
、(-2、0)	-13.0396
の先頭の出現回数が	-13.0399
toNode	-13.0402
を加えた値までの部分列内の	-13.0403
numbers	-13.0404
▁distf	-13.0405
prec	-13.0428
つまり空列と等しくないとき	-13.0432
つまり末尾までの部分列の各要素を	-13.0435
で割った余りを引いた値に	-13.0436
ONE	-13.0441
▁1500000	-13.0441
以下かどうかと	-13.0442
の順列のリストを	-13.0446
つまり偽と等しくかつ	-13.0446
394	-13.0452
を引いた値より小さいかどうかが	-13.0452
で割った商番目の	-13.046
を適用した列の総和	-13.0464
setface	-13.0467
stime	-13.0471
つまり末尾までの部分列が	-13.0473
paths	-13.0477
▁160	-13.0483
[0][0],	-13.0483
番目以上の	-13.0499
ンタ	-13.051
▁1000001	-13.052
番目を連結した文字列を出力する	-13.0527
番目と等しい	-13.056
の出現回数を返す	-13.0561
[-1][1],	-13.0593
151	-13.0602
▁levenshtein	-13.0605
▁combi	-13.0605
乗未満までの数列の各要素を	-13.0612
を引いた値番目を引いた値から	-13.0616
bottomright	-13.0616
で割った商を加えた値に	-13.0637
を引いた値の絶対値の	-13.0665
の列のリストを	-13.0677
10007	-13.0682
second	-13.0692
の先頭を掛けた値に	-13.0693
(2,	-13.0706
[1][	-13.071
を加えた値番目を引いた値を	-13.072
番目以下の	-13.0729
re	-13.0731
▁vec	-13.0742
▁2019	-13.0746
を加えた値の整数値を	-13.0752
の先頭の末尾に	-13.0753
manhattan	-13.0762
combination	-13.0768
topleft	-13.0772
1912	-13.0778
9900001	-13.0792
番目を加えた値の列の最小値を	-13.0793
power	-13.0797
を加えた値を掛けた値を加えた値を	-13.0811
の列の最大値を	-13.0814
rightend	-13.0815
つまり現在の日時	-13.0821
の絶対値を加えた値	-13.0821
の先頭を除いた部分列の	-13.083
番目の論理和を	-13.084
を掛けた値以下のとき	-13.0841
の文字	-13.0842
を引いた値までの部分列を加えた値	-13.0846
6000	-13.0856
の日付を	-13.0858
▁loop	-13.0862
[5]	-13.0879
を加えた値の文字列を	-13.0906
,2))	-13.0908
,2*	-13.0909
▁ab	-13.0911
6)	-13.0913
、0、0)	-13.0939
を掛けた値番目の	-13.0943
からなる列を加えた値に	-13.0957
▁pe	-13.0959
を返す関数をキーとして	-13.0969
▁2)、(	-13.0974
▁正規表現	-13.098
て整数値	-13.1009
▁polygon	-13.1027
▁mask	-13.1037
▁50021	-13.1046
を掛けた値を引いた値を掛けた値を	-13.1056
間隔による部分列を	-13.1064
に改行文字を加えた値	-13.1068
のリストの各要素を	-13.1077
間隔の数列	-13.109
未満までの数列の集合	-13.1096
▁sp	-13.1124
つまり末尾までの部分列の	-13.1125
ed	-13.1178
までの部分列を	-13.1193
の最小値が	-13.1207
のラジアンの余弦を掛けた値	-13.1207
の余弦に	-13.1211
番目で割った余り	-13.1223
を引いた値の文字列を	-13.1229
の列を加えた値に	-13.1248
+2*	-13.1253
の集合の長さ	-13.1256
列の列を	-13.1261
}{	-13.1267
▁123	-13.1282
と等しくなく	-13.1289
elem	-13.1289
ま	-13.129
mark	-13.129
2、3、0、	-13.129
で置き換えた文字列内の	-13.1291
が無限大のとき	-13.1291
整数値未満までの	-13.1292
で割った余りの最大公約数	-13.1294
以下かどうかの列が全てが真	-13.1294
▁500)、(	-13.1297
▁50)、(	-13.1298
の平方根を加えた値を	-13.1301
1、5、0、	-13.1301
の先頭の先頭の	-13.1301
の逆順の各要素を	-13.1307
間隔による部分列の各要素を	-13.1322
の長さかつ	-13.1333
浮動小数点数を適用した列	-13.1334
を掛けた値を加えた値を掛けた値を	-13.1336
、(0、3)	-13.1344
))}	-13.1347
の浮動小数点数と等しくないとき	-13.1355
つまり空文字列と等しくないとき	-13.1356
乗を掛けた値だけ	-13.1357
を空白文字に	-13.1359
て整数値を	-13.1363
を加えた値までの部分列を展開し	-13.1365
を加えた値を返す関数を	-13.1366
空白で分割した字句列内の	-13.1376
▁Sosu	-13.138
▁CountingSort	-13.138
乗を加えた値と等しいとき	-13.1401
乗の整数値	-13.1403
0000000000000000	-13.1408
番目を出力するの列	-13.1431
展開し	-13.1443
を加えた値までの部分列の	-13.145
を引いた値を掛けた値の最大値を	-13.1464
を掛けた値を加えた値回分の列を	-13.1465
で割った値の平方根を	-13.1466
数の論理積を	-13.1474
で分割した字句列のリストを	-13.1479
を加えた値番目を加えた値が	-13.1481
eed	-13.1481
の最小値を引いた値を	-13.1489
を加えた値番目と	-13.1513
を引いた値の絶対値を加えた値	-13.1518
の最大値を引いた値	-13.152
を引いた値が最初にマッチする位置	-13.1524
番目までの部分列の総和に	-13.1524
▁polar	-13.153
-2*	-13.153
▁(1、3)	-13.1535
番目までの部分列を加えた値	-13.1548
の絶対値で割った商を	-13.1553
▁pd	-13.1554
、5、4、	-13.1565
lambdaA	-13.1578
論理和のとき	-13.1579
の文字列が	-13.1592
番目を加えた値を掛けた値だけ	-13.1603
で割った値を加えた値の	-13.1615
座標を引いた値を掛けた値を	-13.164
を返す関数を適用した列	-13.1646
poly	-13.1659
で割った値の整数値に	-13.1683
▁Circle	-13.17
▁flatten	-13.17
の長さ以下かどうかが	-13.1706
▁wa	-13.1714
の末尾を加えた値を	-13.1721
unique	-13.1761
2*(	-13.1804
48.0	-13.1817
を引いた値で割った余りを加えた値	-13.183
-1)*	-13.1831
char	-13.184
+'	-13.1841
▁(1、1、	-13.1853
coin	-13.1869
vec	-13.187
bits	-13.187
2019	-13.1873
整数を適用した列のリストの総和を	-13.1882
書式	-13.1895
visit	-13.1903
▁((0、0、0)	-13.1903
date	-13.1905
のリストをソートした列	-13.1907
fib	-13.1911
を掛けた値を引いた値の絶対値を	-13.1919
を加えた値を無限の整数列	-13.1923
ト	-13.1944
を引いた値回分の列を加えた値	-13.1947
整数を適用した列のリストの	-13.1948
▁10000000	-13.1949
1200	-13.1955
番目を加えた値の列を	-13.1963
を引いた値番目を掛けた値	-13.1989
の末尾にネイピア数を	-13.1995
[0]*	-13.1996
と等しいかどうかの列が	-13.1997
▁UnionFindTree	-13.1997
(0、2)	-13.2022
({	-13.2023
ットのとき	-13.2052
加えた値回分の列を加えた値を	-13.208
の組の各要素を	-13.2083
で割った商番目	-13.2088
にネイピア数の	-13.2094
▁circle	-13.2105
にマッチした文字列の列	-13.2138
回分の列を加えた値回分の列を	-13.2142
を引いた値を引いた値を	-13.2147
▁5000	-13.2166
と等しいかどうかを	-13.2172
に含まれるかどうかを返す	-13.218
,1,0)	-13.2182
とつは真かどうか	-13.2183
▁off	-13.2187
番目の先頭が	-13.2187
▁death	-13.2192
▁coordinates	-13.2193
-5	-13.2195
99	-13.2219
を連結した文字列を出力するの列	-13.224
番目と等しいかどうか	-13.2242
に含まれるかどうかの列の総和	-13.2243
番目番目の末尾	-13.2248
で割った商の列を	-13.225
forDin	-13.2264
にネイピア数を掛けた値	-13.2281
Rotate	-13.2285
から読み込んだ一行の整数値	-13.2288
▁comp	-13.2289
ner	-13.2289
coordinate	-13.2289
、10、11、12、13	-13.229
eavy	-13.229
tag	-13.229
▁SegTree	-13.229
、2004、	-13.229
getPaintCount	-13.229
▁86400	-13.229
▁LeafNode	-13.229
▁act	-13.229
▁makeCurve	-13.229
▁serch	-13.229
0、1、0、1、1、0、1、0	-13.229
Iterable	-13.229
Push	-13.229
full	-13.229
geometry	-13.229
ghtDecomposition	-13.229
isDisjoint	-13.229
▁Binaryserch	-13.229
▁relax	-13.229
トリ	-13.229
6174	-13.229
65536	-13.229
phi	-13.229
target	-13.229
▁BitFlag	-13.229
▁factorization	-13.229
▁nuri	-13.229
getcontext	-13.229
▁kesu	-13.229
ッシュ値を	-13.229
hasNegativeCycle	-13.229
xplored	-13.229
▁RedBlackB	-13.229
1、2、2、3)	-13.229
isSameGroup	-13.229
▁6378.1	-13.229
AddEdge	-13.229
5、7)	-13.229
ling	-13.229
rectangle	-13.229
partial	-13.229
▁paintable	-13.229
divisors	-13.229
▁chs	-13.2291
elems	-13.2291
mt	-13.2291
bombs	-13.2291
▁ppp	-13.2291
gamma	-13.2291
165.0	-13.2291
▁99999	-13.2292
▁dial	-13.2292
resize	-13.2293
Li	-13.2294
1461	-13.2294
Up	-13.2295
ford	-13.2303
1930	-13.2303
sums	-13.2305
を引いた値にネイピア数を掛けた値	-13.2308
つまりネイピア数の先頭番目	-13.2308
を反転した列	-13.2322
ss	-13.2324
の先頭の文字列を加えた値	-13.2326
)/(	-13.2329
*10+	-13.2331
を引いた値の絶対値と	-13.2332
[1]+1,	-13.2333
を掛けた値の	-13.2342
の末尾に文字	-13.2342
を加えた値の文字列を加えた値に	-13.2348
''	-13.2351
で割った余りを掛けた値を	-13.2351
にネイピア数を加えた値から	-13.2352
の末尾に空白文字を間に入れて	-13.2354
▁base	-13.2363
整数値の整数値	-13.2364
の整数値の列の組	-13.2366
の逆順の	-13.2368
の組番目の各要素を	-13.2369
win	-13.2374
を掛けた値の列の総和	-13.238
▁mirror	-13.2384
ar	-13.2391
つまり入力された文字列内の	-13.2399
)/2)	-13.2399
▁9999	-13.2402
つまり末尾までの部分列の最小値	-13.2402
で割った余り番目だけ	-13.2405
のラジアンの正弦を掛けた値を	-13.2406
の総和を引いた値	-13.2408
の正弦を掛けた値に	-13.2413
],[	-13.2414
1989	-13.242
1926	-13.2425
を掛けた値に含まれるとき	-13.2432
(60)	-13.2438
の集合の論理積の長さ	-13.244
の順序数を引いた値を	-13.2462
番目までの部分列の最大値	-13.2467
を掛けた値で割った値	-13.2468
乗を引いた値から	-13.2479
で割った商を引いた値に	-13.2481
(10)	-13.2486
番目で割った値	-13.2489
引いた値番目の末尾にネイピア数の	-13.2518
余を掛けた値を	-13.2518
1000.0	-13.2527
▁165	-13.2533
の末尾番目が	-13.2544
を加えた値で割った余りに	-13.2548
▁valid	-13.2549
の順序数が	-13.2552
番目を掛けた値の列の総和	-13.2552
を掛けた値未満までの	-13.2552
times	-13.2554
▁counter	-13.2566
**	-13.2589
番目のコピーされた列を	-13.2614
のキーの集まりのリスト	-13.2625
関数で	-13.2625
tation	-13.2626
の末尾番目の	-13.2636
文字列を出力する	-13.2638
)**2	-13.2659
▁(1、5、	-13.2668
番目の浮動小数点数を	-13.2682
した値を	-13.2693
番目と等しい要素の最初の位置番目	-13.2698
(2004,	-13.271
番目を引いた値を引いた値を	-13.2722
のリストの各要素	-13.2725
だけ左シフトした値の列	-13.2727
番目より小さい	-13.2749
の総和だけ	-13.2751
▁bits	-13.2764
を掛けた値を引いた値の	-13.2767
に含まれるかどうかの整数値	-13.2796
番目でなくまたは	-13.2804
▁(0、0、	-13.281
▁91	-13.2812
▁l	-13.2818
の長さを引いた値を	-13.2833
の先頭の先頭を引いた値	-13.2876
からなる辞書	-13.2898
forBinC	-13.2901
で割った商を引いた値	-13.2905
番目を英小文字に変換した文字列	-13.2905
で割った余りを引いた値を	-13.293
▁isleap	-13.2934
▁1000000009	-13.2934
を掛けた値を加えた値を引いた値	-13.2943
の総和を返す	-13.2944
に含まれない	-13.2956
かどうかを返す	-13.2967
][0]*	-13.2977
▁mul	-13.3
を引いた値番目を加えた値	-13.3016
traversal	-13.3037
と等しい要素の最初の位置から	-13.3044
ite	-13.3071
diameter	-13.3076
shift	-13.3077
GR	-13.3091
▁(1、0)	-13.3091
multi	-13.3092
の和集合を	-13.3094
の論理積で割った商	-13.3096
pstdev	-13.3098
affine	-13.3098
topological	-13.3099
▁step	-13.3107
正規表現	-13.3111
polar	-13.3112
の最大値の列の最大値	-13.3125
isPrime	-13.3134
gindex	-13.314
の列の最小値	-13.3145
reflection	-13.3146
defaultdict	-13.3147
judge	-13.315
lcm	-13.3156
256	-13.3156
、(2、	-13.3188
1))	-13.3189
番目のリストを	-13.319
乗を引いた値を掛けた値を	-13.3191
で割った商の整数値を	-13.3208
番目で整形した文字列	-13.3209
Dice	-13.3209
*2+2	-13.3218
AL	-13.3231
の集合をソートした列を	-13.3236
1400	-13.3254
▁23	-13.3265
-1,0)	-13.3277
▁105	-13.3285
▁(0、0、0、1、	-13.3298
に入力された文字列の整数値	-13.33
つまりネイピア数の列を	-13.3308
を引いた値を取り出した値	-13.3312
▁equal	-13.3316
▁100000007	-13.3319
を引いた値の文字	-13.3322
、31、30、31、30、31	-13.334
▁pr	-13.3359
(1000,10**9+7	-13.3359
のラジアンの正弦を掛けた値	-13.3388
2))	-13.3391
ight	-13.34
(10**	-13.3401
まり	-13.3401
(10**7)	-13.3401
goal	-13.3401
間隔	-13.3401
ten	-13.3401
を適用した列をソートした列	-13.3402
0、1、2、3、4、5、6、7)	-13.3409
[1]+1)	-13.3413
48	-13.3417
番目の順序数が	-13.3425
4、5、6、7、8、9、10	-13.3425
を空白文字だけ	-13.3429
を連結した文字列の列を	-13.3435
の文字列の長さを	-13.3439
した文字列を出力する	-13.3453
、(3、0)	-13.3454
を掛けた値より小さい	-13.3462
"{}:	-13.3462
だけ左シフトした値を加えた値に	-13.3483
▁nodetype	-13.3497
)).	-13.3512
だけ左シフトした値だけ	-13.3512
▁Stack	-13.3513
▁augment	-13.3513
▁reflect	-13.3513
▁asin	-13.3516
と等しいかどうか番目を	-13.3517
つまり末尾までの部分列の整数値に	-13.3519
を加えた値で割った値に	-13.352
で整形した文字列番目に	-13.3523
>0	-13.3526
を加えた値番目かつ	-13.3537
番目を加えた値の整数値	-13.3546
[:],	-13.3548
の余弦を掛けた値から	-13.3553
を引いた値と等しくなくかつ	-13.3554
(-1、-1)	-13.3572
を引いた値を返す関数を	-13.3597
番目までの部分列の総和が	-13.3616
▁rect	-13.3634
000)、(	-13.3639
、(2、1)	-13.3654
で割った値を引いた値を	-13.367
▁110000	-13.3677
の論理和番目の	-13.368
の最小値と等しい要素の最初の位置	-13.3682
],-	-13.3686
の値の集まりに	-13.3699
▁800	-13.3708
で割った商の最小値を	-13.3708
▁topological	-13.3712
▁affine	-13.3713
▁pstdev	-13.3713
▁multi	-13.3719
を加えた値より小さくかつ	-13.3753
▁((0、0、	-13.376
2012	-13.3765
46	-13.3772
270	-13.3791
▁120	-13.38
▁(-1、	-13.3834
or	-13.3852
34	-13.3854
を掛けた値の整数値を	-13.386
番目を掛けた値を引いた値	-13.3894
の先頭を掛けた値を加えた値	-13.3895
要素をそれぞれ組にした列のリスト	-13.3913
▁SPFA	-13.3916
▁bitDP	-13.3916
▁heuristic	-13.3916
で割った値乗の整数値	-13.3917
.3	-13.3921
▁999	-13.3927
番目との	-13.3931
の組番目が	-13.3935
番目で割った商に	-13.3937
未満までの数列を	-13.3938
で割った余りの文字列を	-13.3939
番目より大きい	-13.3947
+1}	-13.3967
を空白文字で分割した字句列の	-13.3975
と等しくないかどうかが	-13.3976
にネイピア数を加えた値に	-13.3985
をソートした列の逆順を	-13.3994
で割った余りの列	-13.4001
を加えた値番目の整数値を	-13.4016
を引いた値以下の	-13.403
、(1、2)	-13.4055
▁((1、	-13.4089
を加えた値の最小値番目	-13.4092
▁151	-13.4093
を加えた値を加えた値	-13.4103
▁area	-13.4113
[0]]	-13.4124
/2)	-13.4127
"{}"	-13.4127
を引いた値までの部分列を	-13.4142
乗の整数値を掛けた値	-13.4143
番目を加えた値の整数値を	-13.4151
番目をソートした列	-13.4167
だけ左シフトした値に	-13.4167
1,1,0)	-13.4175
203	-13.4187
price	-13.4198
番目を掛けた値の列の総和を	-13.4203
の組の列をソートした列を	-13.4217
番目にネイピア数を加えた値	-13.4226
、64、	-13.4232
番目の最小値に	-13.4249
番目の列を連結した文字列を	-13.4263
[-1])	-13.4273
度順の列	-13.4279
を引いた値の絶対値の最小値	-13.4288
の整数値を引いた値を	-13.4298
列を	-13.4322
からなる列が	-13.4326
*20	-13.4327
番目の出現回数	-13.4329
(-1、1)	-13.4329
▁timedelta	-13.4343
37	-13.4351
▁cv	-13.4356
▁20000	-13.4359
を順に円周率	-13.4365
の対数の整数値	-13.4387
く無限の整数列	-13.4398
(1、-1)	-13.4408
て	-13.441
、0、2、3	-13.4443
▁入力された文字列の各要素	-13.4447
を引いた値番目の列の総和を	-13.4458
[-1]	-13.4482
9999	-13.449
ルターした列	-13.4498
番目以下	-13.4501
にネイピア数を加えた値	-13.4508
day	-13.4513
300000	-13.4515
にネイピア数を加えた値を	-13.4517
番目と等しくなくまたは	-13.4517
bl	-13.452
の最小値の	-13.4527
を掛けた値を加えた値を掛けた値	-13.4532
mirror	-13.4533
整数を適用した列のリストの列	-13.4542
▁po	-13.4546
enqueue	-13.4553
ice	-13.4569
prim	-13.4569
,-1,	-13.4572
swap	-13.4577
し	-13.4579
52	-13.4588
を加えた値までの部分列の総和	-13.4596
して	-13.4599
乗を掛けた値を加えた値を	-13.4602
の絶対値だけ	-13.4603
15)、	-13.4603
▁(0、1	-13.4605
番目の論理積を	-13.4615
▁moveNode	-13.4627
した値を出力する	-13.463
(2、1)	-13.4632
▁(1、2、3、	-13.4632
142	-13.4635
イ	-13.4635
乗を掛けた値が	-13.4643
▁DisjointSet	-13.465
com	-13.465
row	-13.465
ーマットした文字列を長さ	-13.4651
event	-13.4651
InDegree	-13.4651
VALUE	-13.4651
decomposition	-13.4651
etout	-13.4651
farthest	-13.4651
▁RollingHash	-13.4651
cdord	-13.4651
formula	-13.4651
▁RAQ	-13.4651
▁draw	-13.4651
19890108	-13.4651
OUTSIDE	-13.4651
sentinel	-13.4651
▁LCS	-13.4651
▁adjust	-13.4651
HEIGHT	-13.4651
▁Dictionary	-13.4651
▁HashTable	-13.4651
▁hills	-13.4651
乗の列の総和の	-13.4651
32767	-13.4651
32769	-13.4651
365.25	-13.4651
678912	-13.4651
793238	-13.4651
DEPTH	-13.4651
DoublyLinkedList	-13.4651
cube	-13.4651
currentIndex	-13.4651
flag	-13.4651
sheet	-13.4651
survive	-13.4651
▁Polygon	-13.4651
▁RuntimeError	-13.4651
▁buildMaxHeap	-13.4651
▁hyouji	-13.4651
▁lotate	-13.4651
▁measurement	-13.4651
▁topologicalSort	-13.4651
cartesian	-13.4651
clockwise	-13.4651
triple	-13.4651
▁TemplateTree	-13.4651
▁attack	-13.4651
86401	-13.4651
DirectedEdge	-13.4651
PARENT	-13.4651
Player	-13.4651
bellmanford	-13.4651
branching	-13.4651
inquiry	-13.4651
mem	-13.4651
resi	-13.4651
▁PathSum	-13.4651
▁segmentTree	-13.4651
possibility	-13.4651
▁makeItems	-13.4651
argest	-13.4651
30.59	-13.4651
al	-13.4651
thest	-13.4651
cols	-13.4651
casefold	-13.4651
▁scc	-13.4651
以下かどうかの列が	-13.4651
0.00000001	-13.4651
69.0	-13.4651
load	-13.4651
後	-13.4651
っ	-13.4651
iterable	-13.4652
rows	-13.4652
57.0	-13.4652
//2,0)	-13.4652
+1:],	-13.4652
の長さまでの部分列	-13.4652
hldrev	-13.4652
heading	-13.4653
54.0	-13.4653
19.6	-13.4654
64.0	-13.4654
fmt	-13.4657
circles	-13.4659
(10,4	-13.4662
[:])	-13.4662
番目を返す関数をキーとして逆順に	-13.4663
を引いた値を掛けた値の平方根を	-13.4663
mst	-13.4664
ify	-13.4672
整数を適用した列の	-13.4675
ータを空白で分割した字句列	-13.4677
1、1、1)	-13.4679
の末尾に空白文字	-13.4682
-1、0、1)	-13.4683
,'')	-13.4688
の整数値を加えた値が	-13.4689
BforA	-13.4705
を引いた値番目を返す	-13.4707
の排他論理和番目	-13.4709
の集合が	-13.4715
▁-1)、(	-13.4717
、31、30、31、30、31)	-13.4721
と等しくないかどうかを加えた値	-13.4729
番目を引いた値の絶対値が	-13.4729
[5])	-13.4741
51.0	-13.4742
を引いた値番目の整数値に	-13.4742
be	-13.4743
を引いた値の絶対値の列の最大値を	-13.4744
nset	-13.4751
bin	-13.4754
を加えた値の列の最大値を	-13.4758
の値の集まりの最大値	-13.4761
ネイピア数に	-13.4768
ast	-13.478
で割った値を掛けた値に	-13.4781
[4])	-13.4782
だけ左シフトした値の論理和と	-13.4784
▁day	-13.479
▁300000	-13.479
の先頭を除いた部分列を加えた値を	-13.479
540	-13.4796
▁(0、1、2)	-13.4798
を適用した列の総和を	-13.4807
の先頭を除いた部分列の各要素を	-13.4818
splitlines	-13.4819
Nodes	-13.4827
CHE	-13.4843
で割った余りを掛けた値を加えた値	-13.4845
番目の絶対値が	-13.4846
の整数値を掛けた値だけ	-13.4848
2、64、	-13.4855
、16、	-13.487
-1]-	-13.4878
辞書のキーと値の集まり	-13.4891
maxflow	-13.4892
の列の集合の長さが	-13.4902
▁3)、(	-13.4907
乗回分の列	-13.4924
の文字列を加えた値の整数値	-13.493
と等しい要素の最初の位置番目に	-13.4934
88	-13.4934
で割った余り番目の	-13.497
▁O	-13.4972
),1)	-13.5003
▁select	-13.5005
▁Team	-13.5005
▁attrgetter	-13.5005
▁BinaryTreeNode	-13.5006
を掛けた値を加えた値の最小値	-13.5006
▁bellman	-13.5007
1、1、	-13.5017
を加えた値で割った商に	-13.5018
5*	-13.5021
のキーの集まりの集合	-13.5029
を掛けた値を引いた値で割った値に	-13.5029
+1]))	-13.5034
の先頭を取り出した値の文字列	-13.504
(1、0、0)	-13.505
を引いた値番目より大きいとき	-13.5059
の先頭の整数値に	-13.5077
*2+1]	-13.5077
の列の	-13.5121
を反転した列を	-13.5136
(3、1、	-13.5144
▁100.0	-13.5149
つまり入力された文字列の整数値を	-13.515
つまりネイピア数を引いた値	-13.5155
からなる列を展開してを出力する	-13.5162
を引いた値番目と	-13.5165
[0].	-13.5171
で置き換えた文字列	-13.5177
番目までの部分列を反転した列	-13.5201
を返す関数を適用した列のリスト	-13.5201
append	-13.5235
の整数値の列の総和を	-13.5242
つまり入力された文字列の各要素に	-13.525
▁2500	-13.5252
の整数値番目を	-13.5252
▁char	-13.5252
以下かどうかを	-13.526
8)	-13.5275
を返す関数をキーとして逆順に	-13.5287
lambda	-13.5319
を加えた値番目の整数値を掛けた値	-13.5354
を引いた値の列	-13.5365
▁command	-13.54
番目が全て数字	-13.5414
201	-13.5414
つまりネイピア数を	-13.5435
▁lcs	-13.5441
番目の先頭を除いた部分列	-13.5465
}),	-13.5466
を反転した列のリストを	-13.5471
(4、1、4、1、2、1、2、1	-13.5482
▁plot	-13.5483
▁14001	-13.5485
▁twoch	-13.5485
▁guruguru	-13.5486
▁fcheck	-13.5497
の浮動小数点数の列の列	-13.5505
の値の集まりのリスト	-13.5527
整数の	-13.5537
1、-2)	-13.5537
▁(11、1	-13.5545
▁35.5	-13.5571
,4)	-13.562
の正弦を掛けた値を引いた値	-13.5629
を書式	-13.5634
の文字列のリスト	-13.5645
で割った商番目が	-13.5655
、1、0)	-13.5657
を引いた値で割った値	-13.5663
setroot	-13.5678
を加えた値までの部分列の総和を	-13.5718
、(2、-1	-13.5733
を加えた値番目の先頭	-13.5747
を掛けた値を加えた値番目の末尾に	-13.5758
1500	-13.5761
の集合を引いた値	-13.578
と等しいかどうかの整数値	-13.5802
まる無限の整数列	-13.5822
の末尾を展開し	-13.5845
の文字列に空白文字を加えた値	-13.5848
▁dequeue	-13.5849
▁円周率	-13.5855
を加えた値を掛けた値が	-13.5874
の余弦を	-13.5874
した値の文字列	-13.5877
-1、-1	-13.5882
の先頭と等しい要素の最初の位置	-13.5883
入力された文字列を	-13.5892
の先頭を除いた部分列の整数値	-13.5902
、-1、-1)	-13.591
▁(500、100、50、10	-13.5913
の順序数を加えた値の文字を	-13.5916
の値の集まりの最大値を	-13.5932
result	-13.5935
を加えた値のリストの列	-13.594
<<	-13.5951
を加えた値の絶対値が	-13.5965
110000	-13.5968
▁1600	-13.5976
辞書の	-13.5981
▁hand	-13.5986
▁dij	-13.5987
▁minCost	-13.5991
の絶対値の	-13.6001
▁99	-13.6012
で割った値の余弦を掛けた値	-13.6031
ンのリストを	-13.6034
sib	-13.604
の整数値を掛けた値に	-13.6045
▁0、0、0、0	-13.6048
,[])	-13.6058
の集合の論理和を	-13.606
380	-13.6067
を取り出した値の浮動小数点数	-13.6074
のリストを加えた値に	-13.6076
の総和を加えた値を	-13.6079
値として	-13.6079
puzzle	-13.608
最大	-13.608
、0、0、0、0、0、0、0	-13.608
、4000、3000、2000)	-13.608
を適用した列に番号付した組の列を	-13.608
shcd	-13.608
[8:13]	-13.608
forein	-13.608
をキーとして	-13.608
つまり文字列	-13.608
以下でなくまたは	-13.608
▁(1、-1、	-13.6081
を引いた値までの部分列の各要素を	-13.6085
番目の先頭を加えた値の整数値	-13.6087
の最小値を引いた値に	-13.6089
番目番目を順に	-13.6089
の絶対値で割った値を返す	-13.6091
(1、2、4、8	-13.6092
,-1,-1,0	-13.6094
左シフトした値の論理積でないとき	-13.6094
番目の日付を	-13.6097
整数を適用した列の組の列	-13.61
を引いた値番目の各要素に	-13.6102
を加えた値に空白文字を間に入れて	-13.6103
▁250000	-13.6103
**0.5))	-13.6104
^1)	-13.6104
-30)	-13.6104
の値の集まりの各要素を	-13.6105
10、11、12、13、14	-13.6111
の各要素に整数を適用した列の組を	-13.6113
乗に円周率を掛けた値	-13.6113
conn	-13.6115
,1,-	-13.6116
▁240	-13.6118
の長さと等しくなくかつ	-13.6121
dep	-13.6127
を加えた値の論理和番目	-13.6129
の長さの列の最大値	-13.613
unit	-13.6134
+1)%	-13.6138
番目の長さより小さい	-13.6139
arg	-13.6141
の組の列の集合を	-13.6141
pd	-13.6141
で割った商までの部分列を	-13.6144
の先頭の文字列に	-13.6145
つまり末尾までの部分列内の	-13.6148
商の	-13.6153
番目を英大文字に変換した文字列	-13.6168
minCost	-13.6169
dij	-13.6173
hand	-13.6175
を掛けた値より小さくかつ	-13.6182
100000007	-13.6191
つまり未定値と等しくまたは	-13.6191
equal	-13.6192
を掛けた値までの部分列	-13.6203
を引いた値までの部分列に	-13.6203
つまりネイピア数番目のとき	-13.6215
[2]*	-13.6216
ネイピア数から	-13.6223
fix	-13.6229
▁plus	-13.6229
▁divide	-13.6229
▁collision	-13.6229
▁binsearch	-13.6236
queue	-13.6238
round	-13.6244
slide	-13.6248
splay	-13.625
compute	-13.625
した文字列に	-13.6252
decimal	-13.6252
番目の列の総和を引いた値	-13.6252
//2	-13.6253
乗で割った余り	-13.6254
+4)	-13.6261
番目を引いた値の最大値	-13.6268
乗で割った値に	-13.6273
rdfs	-13.6278
3000	-13.628
の末尾番目を	-13.6292
加えた値を出力する	-13.6305
224	-13.6305
つまりネイピア数より小さいとき	-13.6311
を引いた値番目を加えた値が	-13.6327
exi	-13.6337
3、0)	-13.6353
ca	-13.6354
番目だけ左シフトした値	-13.6365
を加えた値のとき	-13.637
▁201	-13.637
の先頭を除いた部分列の総和に	-13.6377
)/	-13.6382
で割った値の最大値を	-13.6386
で整形した文字列が	-13.6399
を空白で分割した字句列の逆順を	-13.6414
で割った商を加えた値が	-13.642
の先頭の最大値	-13.643
][2])	-13.6444
にネイピア数	-13.6454
▁(-1、-1)	-13.6457
ConnectedCompone	-13.6458
olling	-13.6469
((0、-1)	-13.6487
▁(0、1、0、-1)	-13.6499
<=20	-13.6501
▁shift	-13.6519
▁diameter	-13.6521
▁182	-13.6521
▁GR	-13.6532
番目の先頭番目を	-13.6535
で割った値の浮動小数点数を	-13.6536
▁ite	-13.6549
乗の整数値を加えた値	-13.6555
,1<<	-13.6561
[0][1]	-13.6565
,1,1)	-13.6569
▁R	-13.6599
のキーの集まりをソートした列を	-13.6612
▁円周率の	-13.668
、((	-13.6695
[1:	-13.6732
整数を適用した列の組	-13.6757
▁mean	-13.6768
▁splice	-13.6773
▁Board	-13.6777
▁0.0000001	-13.6795
▁Search	-13.6795
に空文字列を間に入れて	-13.6803
から読み込んだ一行の整数値の列	-13.681
で割った余りの文字列	-13.6811
1000001	-13.6841
を取り出した値を出力する	-13.6856
の列を連結した文字列の列を	-13.6864
4、4、3、	-13.6876
を掛けた値の文字列	-13.6885
▁cs	-13.6891
=0)	-13.6891
集合を	-13.6902
(1、	-13.6903
を引いた値を加えた値	-13.691
番目番目から	-13.6928
つまり入力された文字列を	-13.6945
▁96	-13.6972
つまり現在の日時を引いた値	-13.6975
の整数値の列の	-13.6979
▁out	-13.7003
(6)	-13.7008
),0)	-13.7017
を引いた値の絶対値の列	-13.7031
からなる列の最小値を	-13.7043
0、100	-13.7058
間隔による部分列が	-13.7064
番目の最小公倍数を	-13.7081
整数を適用した列のリストに	-13.7087
0))	-13.71
入力された文字列のリストの各要素	-13.7108
、0.0	-13.7128
番目の排他論理和を	-13.7139
▁ch	-13.7151
番目を連結した文字列	-13.7194
を加えた値以下	-13.7198
の値の集まりの	-13.7214
番目で割った余りを	-13.7238
▁(-1、-1、	-13.7249
(3,	-13.7263
番目までの部分列内の	-13.727
▁slope	-13.728
(90	-13.7288
]).	-13.7291
**3	-13.7301
-1)//2	-13.7308
の最大値を加えた値	-13.7311
つまりネイピア数の先頭番目に	-13.732
の逆順を連結した文字列の整数値	-13.7333
▁((-1、-1)	-13.7339
にネイピア数を加えた値が	-13.7352
番目で割った商を	-13.7388
▁195	-13.74
番目の列の最大値	-13.7401
つまり未定値と等しいときの	-13.7416
▁5.0	-13.7437
現在の日時とする	-13.7455
の出現回数を加えた値を	-13.7456
つまり空文字列の列	-13.7457
に空白文字を加えた値	-13.7482
▁"0	-13.75
の長さ以下のとき	-13.7519
度順の列を	-13.7526
を加えた値を加えた値を	-13.7528
[:-1]	-13.7544
の排他論理和の	-13.7547
--	-13.755
000	-13.758
の末尾の総和を	-13.7596
を引いた値の列の総和	-13.7612
番目の列の最小値	-13.7613
-1]+	-13.7621
の列を連結した文字列	-13.7622
、(5	-13.7628
番目の最大公約数	-13.7636
▁RIGHT	-13.765
の整数値の	-13.7654
で割った値の正弦	-13.7655
の組の列の最小値を展開し	-13.7686
▁100000000	-13.7695
の先頭番目の長さ	-13.7729
▁trans	-13.773
,0,0)	-13.7732
arr	-13.774
を返す関数で集約した列	-13.7741
ffffffffffffff	-13.7742
symmetr	-13.7742
▁primeFactor	-13.7743
▁(5、4、3、	-13.7743
▁shell	-13.7743
rom	-13.7744
2、3、3	-13.7745
つまり改行文字	-13.7745
▁Rect	-13.7745
タ	-13.7745
divisor	-13.7745
permutation	-13.7745
6、7、8、9、5、4、3、2	-13.7746
連結	-13.7746
ment	-13.7746
ルな集合	-13.7746
seq	-13.7746
apex	-13.7746
、2、1、2、2、	-13.7746
dead	-13.7746
section	-13.7746
ufo	-13.7746
、17、19、2	-13.7746
▁(5、7、5、7、7)	-13.7746
▁extendedEuler	-13.7746
figure	-13.7746
third	-13.7746
▁(25、10、5、1)	-13.7746
▁314159265	-13.7746
▁Set	-13.7746
▁SieveOfAtkin	-13.7746
▁bumb	-13.7746
▁distant	-13.7746
▁minkowsuki	-13.7746
▁retro	-13.7746
4626433832795	-13.7746
BORDER	-13.7746
HasNode	-13.7746
INSIDE	-13.7746
Ufo	-13.7746
arrangement	-13.7746
choice	-13.7746
grid	-13.7746
invalidate	-13.7746
isoweekday	-13.7746
leave	-13.7746
makeSet	-13.7746
▁"({}	-13.7746
▁33554393	-13.7746
▁AdjacentGraph	-13.7746
▁Kruskal	-13.7746
▁Sssp	-13.7746
▁error	-13.7746
▁margeSort	-13.7746
▁recursive	-13.7746
▁shoot	-13.7746
▁sky	-13.7746
▁slove	-13.7746
▁twist	-13.7746
メ	-13.7746
anticlockwise	-13.7746
getPrimes	-13.7746
revert	-13.7746
▁Network	-13.7746
▁Simulator	-13.7746
▁Triangle	-13.7746
▁getHeight	-13.7746
▁inPhase	-13.7746
▁postPhase	-13.7746
▁prePhase	-13.7746
▁reconstruction	-13.7746
literal	-13.7746
▁DirectedGraph	-13.7746
▁Multi	-13.7746
▁interval	-13.7746
▁setHight	-13.7746
crea	-13.7746
▁Cirle	-13.7746
▁StopIteration	-13.7746
号	-13.7746
用対数	-13.7746
▁randomaccess	-13.7746
▁日時	-13.7746
▁cwr	-13.7746
▁llcs	-13.7746
the	-13.7746
の末尾に改行文字を	-13.7746
games	-13.7746
param	-13.7746
projecter	-13.7747
▁pwr	-13.7747
)//2+1,	-13.7747
isSameface	-13.7747
TO	-13.7747
▁imul	-13.7747
makeBoard	-13.7747
▁fro	-13.7747
outW	-13.7747
(0,[0]*	-13.7747
pages	-13.7747
▁Rects	-13.7747
▁swaped	-13.7747
digits	-13.7747
つまり末尾	-13.7747
REdge	-13.7748
era	-13.7748
*10**	-13.7748
ref	-13.7748
間隔の数列のリストを	-13.7748
▁dfschain	-13.7749
greedy	-13.7749
▁sit	-13.7749
▁pushback	-13.7749
sing	-13.7749
hit	-13.775
,1,-1)	-13.775
▁105000	-13.775
erate	-13.7751
blow	-13.7751
▁getSum	-13.7751
ffffffffffffffff	-13.7751
、2244)	-13.7751
,2**	-13.7751
(0、0、1)	-13.7752
isnil	-13.7752
maxheap	-13.7754
▁hs	-13.7754
factors	-13.7755
lf	-13.7755
番目の順序数以下かどうかが	-13.7755
3163	-13.7756
▁(31、2	-13.7756
の逆順の整数値から	-13.7757
を加えた値までの部分列の逆順	-13.7759
[1]].	-13.776
cw	-13.776
▁art	-13.7763
(0.0,0.0)	-13.7765
無限の整数列の最大値を	-13.7767
と等しいかどうかを加えた値に	-13.7768
乗を引いた値の平方根	-13.7768
0.88	-13.7769
いかどうかを返す	-13.7769
▁入力された文字列の各要素を	-13.7771
の最大公約数で割った値の整数値を	-13.7773
forest	-13.7775
、(0、-3)	-13.7776
sets	-13.7778
qtime	-13.7779
を掛けた値で割った値を加えた値	-13.7779
lp	-13.7781
moves	-13.7781
*2+1)	-13.7782
を掛けた値の列の最大値	-13.7784
を連結した文字列の整数値の列を	-13.7784
1/3)	-13.7785
の末尾の整数値を	-13.7786
[5:]))	-13.7786
で集約した列を返す	-13.7787
より小さいかどうか番目を	-13.7787
trees	-13.7788
▁insertsort	-13.779
のラジアンの正弦を	-13.7792
からなる列の最大値を	-13.7796
のラジアンの余弦を	-13.7796
out	-13.7801
座標より小さくかつ	-13.7801
▁0.0001	-13.7804
1、0、1)	-13.7804
と等しいかどうかの列の総和を	-13.7806
を加えた値未満までの数列と	-13.7809
を返す関数	-13.7811
(10000000000	-13.7811
5、4)	-13.7812
▁dis	-13.7814
の論理和番目	-13.7814
10080	-13.7817
の最大公約数で割った商	-13.7818
で割った商を掛けた値を加えた値に	-13.7818
の列の先頭を	-13.7821
ルターした列のリスト	-13.7823
▁isprime	-13.7825
2、1、0	-13.7834
と等しいかどうかを掛けた値に	-13.7836
乗を引いた値だけ	-13.7837
-1][1]	-13.7843
を掛けた値以下かつ	-13.7845
0.001	-13.7845
を加えた値番目の先頭が	-13.7846
からなる列の各要素に	-13.7849
の組が最初にマッチする位置	-13.7852
を引いた値までの部分列が	-13.7855
ネイピア数の先頭を	-13.7855
nodeid	-13.7859
で割った商の最大値を	-13.7866
の出現回数を引いた値に	-13.7874
て整数値に	-13.7878
▁円周率から	-13.7882
(10,6	-13.7885
番目の列の各要素を	-13.7891
(10,2	-13.7891
を加えた値の列の総和	-13.7896
番目で割った値の切り	-13.79
乗を引いた値の平方根を	-13.7906
▁popb	-13.7907
▁(1、2、3、4、5、6)	-13.7912
の先頭を掛けた値だけ	-13.7916
で割った余りを加えた値に	-13.7919
番目の列が	-13.7922
▁10000001	-13.7923
▁oct	-13.7925
つまり現在の日時を引いた値を	-13.7926
の先頭を取り出した値番目だけ	-13.7933
の先頭を取り出した値だけ	-13.7934
(500、100、50、10、5	-13.7947
181	-13.795
rfind	-13.795
5.0	-13.7951
の排他論理和と	-13.7955
1121	-13.7955
番目の文字列に	-13.7957
ifE	-13.796
の順序数を加えた値の文字	-13.7962
の論理和が	-13.7972
を加えた値のリストの列を	-13.7973
の先頭と等しくない	-13.7978
collections	-13.7985
forCinD	-13.7996
を掛けた値だけ左シフトした値	-13.8
▁popf	-13.8003
の長さの文字列を	-13.8004
つまり末尾までの部分列を展開し	-13.8005
&1	-13.8013
で集約した列を	-13.803
3*	-13.8037
▁ex	-13.8038
-0.5	-13.8038
Face	-13.8038
ip	-13.8041
、15、	-13.8043
▁(-1、0)	-13.8083
2)+	-13.8088
番目より小さくまたは	-13.8089
INT	-13.8095
の文字の出現回数	-13.8101
".	-13.8102
by	-13.8105
の論理和の長さ	-13.8106
を加えた値番目を引いた値に	-13.8114
500000	-13.8116
ett	-13.8124
-1][0]	-13.8137
heapP	-13.8139
35.5	-13.8141
番目の列を連結した文字列	-13.8157
53	-13.817
からなる列を加えた値の列	-13.8176
を引いた値までの部分列の総和	-13.8178
timedelta	-13.8181
195	-13.8184
の整数値の列の組を	-13.8185
のキーの集まりに	-13.8192
を掛けた値を引いた値の最小値	-13.8197
を掛けた値の列の総和の列	-13.8209
outer	-13.8212
cv	-13.8217
WeightedEdge	-13.8219
Fraction	-13.8225
kruskal	-13.8225
chain	-13.8226
fill	-13.8227
decode	-13.8231
construct	-13.8234
parser	-13.8235
▁tax	-13.8238
link	-13.8241
▁extract	-13.8245
▁function	-13.8245
▁middle	-13.8246
parse	-13.8248
▁operation	-13.8249
none	-13.8254
を加えた値を引いた値	-13.8256
の最小値を加えた値	-13.8262
列を連結した文字列を返す	-13.827
7200	-13.8272
__()	-13.8277
▁99999999	-13.8287
の列が全てが真	-13.8289
、(-	-13.8301
leftend	-13.8304
4*	-13.8308
番目より大きくかつ	-13.8314
番目の先頭を返す	-13.832
で割った値の絶対値を	-13.8344
つまり空列の列	-13.8348
▁720	-13.836
を掛けた値番目の最小値	-13.8378
pare	-13.8398
[0][0]	-13.8404
4.9	-13.8409
を返す関数を適用した列のリストを	-13.8415
▁".	-13.8421
fromkeys	-13.8441
outC	-13.8489
▁1500	-13.8499
],1)	-13.8509
)"	-13.8532
/2	-13.8537
-7	-13.8545
乗の列	-13.8548
の要素をそれぞれ組にした列の組を	-13.8564
を引いた値番目の先頭を	-13.8566
240	-13.8614
25)	-13.8621
▁(-1、0、1、0)	-13.863
を開いたファイルストリームに	-13.865
番目を空白で分割した字句列	-13.8683
つまり末尾までの部分列の長さ	-13.8688
][0]	-13.8689
整数を適用した列のリストを返す	-13.8705
、3)	-13.8723
,1))	-13.8724
空白で分割した字句列の列を	-13.8736
番目を掛けた値を加えた値に	-13.8763
({"	-13.8769
、1870	-13.877
1260	-13.8805
▁queen	-13.8809
、"{}	-13.8816
番目の文字列	-13.8825
番目の先頭を除いた部分列の整数値	-13.8847
の整数値より小さいとき	-13.8893
を引いた値をネイピア数	-13.8904
の末尾にネイピア数の先頭	-13.8908
▁LCM	-13.8934
▁stair	-13.8934
▁euclid	-13.8934
▁isEmpty	-13.8935
▁freq	-13.8936
を掛けた値を引いた値の平方根を	-13.8938
▁1730	-13.8943
の文字列の各要素を	-13.8948
▁restore	-13.8983
の長さの最大値を	-13.8989
:.0	-13.8996
ts	-13.8996
で割った余りの論理値	-13.9032
で割った値の平方根	-13.9036
50.0	-13.9049
を返す関数で	-13.9076
番目の先頭を引いた値	-13.9121
を加えた値の切り	-13.9137
を返す関数を適用した列を	-13.915
▁60000	-13.9152
と等しいかどうかを掛けた値	-13.9159
を加えた値の最大値	-13.9173
の余弦	-13.9175
][0]}	-13.9196
の長さ番目の	-13.9202
43	-13.9202
[0][	-13.9205
▁98	-13.9206
番目までの部分列の逆順を	-13.9213
の出現回数を引いた値	-13.9241
▁現在の日時	-13.9276
▁pp	-13.928
-1]))	-13.9307
%3	-13.9337
のリストを順に	-13.9352
、0、1)	-13.9363
を引いた値番目の最小値	-13.9367
の出現回数の列の総和を	-13.9369
つまりネイピア数番目の列	-13.9382
の正弦	-13.9401
[2]-	-13.9404
を引いた値の絶対値の最大値を	-13.9428
からなる列の列	-13.9431
を適用した列のリストの総和	-13.9464
を適用した列の最小値	-13.9521
49	-13.9522
の整数値の最小値	-13.9536
の両端キュー	-13.9576
した文字列を加えた値	-13.9585
の出現回数のとき	-13.9585
+1-	-13.959
(5,	-13.9599
▁0.01	-13.9601
10000000000	-13.9606
、(3、	-13.9607
の総和の列	-13.9615
文字列の	-13.9624
の絶対値で割った商	-13.9625
▁55	-13.9642
▁arg	-13.9656
と等しい要素の最初の位置の	-13.9658
▁unit	-13.9662
番目を引いた値で割った値	-13.9665
▁dep	-13.9681
▁conn	-13.97
の文字列の長さ	-13.9709
[7]	-13.9712
、0、-1)	-13.9717
(-2)	-13.9726
の整数値を掛けた値を出力する	-13.9731
2(-	-13.9731
ate	-13.9736
▁0.00000000	-13.9737
、(1、2、3、	-13.9739
の順序数以下かどうかが	-13.9741
の先頭を引いた値だけ	-13.9741
を空文字列に置き換えた文字列	-13.9746
(2012,12,21)	-13.9746
▁compile	-13.9746
cent	-13.9746
NUM	-13.9746
、3、1、4、2、	-13.9746
を適用した列の総和の文字列の長さ	-13.9746
の総和の文字列の長さ	-13.9746
+1:])	-13.9747
ータを英小文字に変換した文字列を	-13.9747
-3)//2)	-13.9747
▁(100、0)	-13.9748
//3600	-13.975
番目の整数値を辞書の	-13.975
▁899	-13.975
ki	-13.9752
を空文字列で置き換えた文字列内の	-13.9754
BACK	-13.9755
▁2017	-13.9756
番目を連結した文字列を	-13.9757
[1]],-	-13.9758
sh	-13.9759
で割った商の文字列	-13.976
つまりネイピア数の総和の列	-13.9762
(1,0)	-13.9765
番目を引いた値の絶対値の最大値を	-13.9769
の論理積のリストを	-13.9769
[1][1]	-13.9769
をネイピア数だけ	-13.977
、850)	-13.9773
の論理積の排他論理和番目に	-13.9774
と等しいかどうかの列を	-13.9777
[6]	-13.9781
からなる列を連結した文字列を	-13.9782
、(1、5、	-13.9784
、5、4、3、2	-13.9784
を掛けた値の列をソートした列を	-13.9785
,((-	-13.9786
+1,0)	-13.9787
を掛けた値を掛けた値を	-13.979
、1、2、3)	-13.9791
を加えた値番目の最大値に	-13.9791
の整数値の列をソートした列の	-13.9793
0.85	-13.9793
▁2000000000	-13.9796
の先頭の順序数から	-13.9798
の先頭を引いた値の絶対値を	-13.9798
の長さだけ左シフトした値	-13.98
で分割した字句列の先頭を	-13.98
からなる列の列の各要素を	-13.98
乗以下の	-13.9805
の整数値の文字列	-13.9807
を引いた値までの	-13.9808
乗より小さくかつ	-13.9809
番目を英小文字に変換した文字列を	-13.9811
内での	-13.9813
2034	-13.9815
からなる列をソートした列を	-13.9834
反転した列を	-13.9834
>>1	-13.9835
91)	-13.9836
番目の長さで割った余り番目	-13.9839
で割った余りの文字列に	-13.9841
からなる列の出現回数が	-13.985
番目を英小文字に変換した文字列が	-13.985
179	-13.9853
だけ右シフトした値だけ	-13.9858
▁CP	-13.9859
の逆順を加えた値	-13.9861
の先頭番目の長さが	-13.9864
を掛けた値を引いた値を加えた値を	-13.9868
の長さと等しくまたは	-13.9869
-1)%	-13.9869
番目番目の各要素を	-13.987
▁0.0000	-13.9877
の先頭を除いた部分列内の	-13.9881
の整数値だけ左シフトした値との	-13.9881
▁224	-13.9888
整数値の最大値を	-13.989
[0]])	-13.9905
▁(1、1、2	-13.9909
より小さいかどうかの列が全てが真	-13.991
番目に含まれかつ	-13.9914
の整数値番目の末尾に	-13.9915
er	-13.9918
(1+	-13.9919
番目までの部分列の総和だけ	-13.9921
を掛けた値を返す関数で集約した列	-13.9927
の整数値を引いた値の文字列を	-13.9932
を引いた値番目を引いた値だけ	-13.9932
だけ右シフトした値番目に	-13.9933
の長さを加えた値から	-13.9946
で割った商の最小値に	-13.9948
を掛けた値で割った商を	-13.9955
つまり真の出現回数	-13.9961
と等しくないかどうかに	-13.9963
つまり現在の日時番目が	-13.9964
▁bridge	-13.9968
▁Fib	-13.997
▁PPeQ	-13.997
▁3649	-13.997
▁jarvis	-13.997
▁scaler	-13.997
▁LinkList	-13.997
▁BubbleSort	-13.997
▁SelectionSort	-13.997
▁Lst	-13.997
▁prod	-13.9971
▁sel	-13.9976
より小さいかどうかに	-13.998
▁366	-13.9982
pr	-13.9983
digit	-13.9986
で割った値の整数値を返す	-13.9994
で割った余りを掛けた値に	-14.0003
列の各要素に整数を適用した列	-14.0009
の余弦を掛けた値に	-14.0012
▁1000)、(	-14.0019
を引いた値番目の整数値	-14.0021
の集合の長さを	-14.0028
の集合の排他論理和	-14.0033
を加えた値で割った商	-14.0034
(0.0、	-14.0044
を引いた値の文字列を長さ	-14.0049
+1,-	-14.0054
|(	-14.0066
の長さを返す関数を	-14.0073
無限の整数列の	-14.0081
を掛けた値を加えた値の平方根	-14.0082
乗を掛けた値から	-14.0083
番目より小さいかどうかが	-14.009
66	-14.0092
番目とするとするを	-14.0132
%'	-14.0134
番目の出現回数を	-14.0139
を適用した列を順に	-14.0148
を加えた値で割った値を加えた値を	-14.0148
999999999	-14.0153
の先頭番目のとき	-14.0156
overlap	-14.0161
heights	-14.0187
、81、	-14.0212
の末尾の末尾が	-14.0223
▁(-1、1)	-14.0223
、(4、0、	-14.0226
、(3、1、	-14.0226
座標を掛けた値を引いた値を	-14.0231
を引いた値を引いた値が	-14.024
-1,0,	-14.0242
を引いた値を掛けた値の平方根	-14.0242
のキーと値の集まりのリストを	-14.0242
番目で整形した文字列を	-14.0248
0.0)	-14.0254
69	-14.0261
を引いた値と等しくない	-14.027
を掛けた値の最小値を	-14.0276
入した整数値を	-14.028
を引いた値の最大値に	-14.0281
//3	-14.0285
bi	-14.029
の先頭を掛けた値	-14.0308
を加えた値より小さい	-14.0314
を引いた値番目を加えた値に	-14.0316
9999999999999999	-14.0323
50000	-14.0328
255	-14.0346
の余弦を掛けた値を	-14.0354
(-2、1	-14.0355
番目の最小値を加えた値を	-14.0365
(10,1	-14.0371
を引いた値の絶対値を引いた値	-14.0373
の先頭と等しくないとき	-14.0375
を加えた値を掛けた値を引いた値を	-14.0377
3)])	-14.0384
番目と等しいかどうかの列が	-14.0393
cont	-14.0395
番目を加えた値の文字列を加えた値	-14.0427
を掛けた値を加えた値の平方根を	-14.0437
(4、5	-14.044
だけ左シフトした値の	-14.0444
を加えた値番目を加えた値に	-14.045
の平方根を引いた値	-14.046
を加えた値に改行文字を加えた値	-14.0468
▁traversal	-14.0469
を加えた値の総和	-14.0478
より大きいかどうかの列の総和	-14.0483
400)	-14.0513
以上かどうか番目を	-14.0514
間隔による部分列の総和	-14.0529
と等しい要素の最初の位置が	-14.053
clock	-14.0531
reachable	-14.0538
quad	-14.054
9999999	-14.0542
perm	-14.0546
propagate	-14.0547
真を	-14.056
[1].	-14.0577
cal	-14.058
部分を	-14.0585
乗を掛けた値を引いた値	-14.0593
>>	-14.0595
itertools	-14.0608
の先頭で割った余りを	-14.0621
freq	-14.0627
isEmpty	-14.0629
euclid	-14.0629
stair	-14.063
LCM	-14.063
1730	-14.0634
を入力された文字列の整数値	-14.0638
だけ左シフトした値の列の総和を	-14.0641
を取り出した値だけ	-14.0643
+20	-14.0654
guruguru	-14.0669
twoch	-14.067
plot	-14.0674
番目の列の	-14.0675
dequeue	-14.0677
▁matmul	-14.068
80)	-14.0682
fcheck	-14.0685
3.141592653589	-14.0691
1000000009	-14.0691
isleap	-14.0693
20000	-14.07
open	-14.0702
Check	-14.0715
selectionSort	-14.0715
fa	-14.0718
direction	-14.072
euler	-14.0723
pw	-14.0727
60000	-14.0732
fibonacci	-14.0732
contain	-14.0733
*2,	-14.074
selection	-14.0742
改行文字を間に入れて	-14.0744
{}	-14.0746
に空白文字を間に入れて	-14.0748
change	-14.0752
ab	-14.0762
の末尾を引いた値	-14.0766
を英大文字に変換した文字列を	-14.078
[0]==	-14.0791
▁104743	-14.0802
br	-14.0805
▁(1、0、-1、0)	-14.0809
連結した文字列の整数値を	-14.081
を引いた値を加えた値が	-14.0815
98	-14.0833
▁List	-14.0846
で割った余り番目から	-14.0861
の整数値の列の列をソートした列を	-14.0869
からなる列の総和	-14.0882
の先頭を取り出した値に	-14.0887
で割った値の整数値から	-14.0902
180.	-14.0926
を引いた値の絶対値の最小値を	-14.0927
の列をソートした列	-14.0939
▁57	-14.0941
した値	-14.0986
の先頭の長さより小さくかつ	-14.1034
を引いた値で割った商を	-14.104
を加えた値番目の整数値を加えた値	-14.1046
*2)	-14.1069
を引いた値の列の最大値を	-14.1126
ネイピア数の整数値を	-14.1138
の先頭を取り出した値を加えた値を	-14.1164
▁back	-14.1209
に含まれるかどうかを	-14.1227
7)	-14.1235
数文字列	-14.1267
GCD	-14.1279
▁second	-14.1285
-2、-1)	-14.1293
の最小値番目を	-14.1294
の総和を引いた値を	-14.131
番目の逆順を	-14.134
番目の各要素に	-14.1388
乗の文字列	-14.1402
、(12	-14.1422
]+[	-14.1424
-2,	-14.1433
の値の集まりの総和を	-14.1454
(100000	-14.1478
-1+	-14.1488
未満までの数列の各要素に	-14.1501
のキーの集まりのリストを	-14.1508
//2]	-14.1513
▁1、10	-14.153
dd	-14.1534
偽を	-14.1544
▁an	-14.1552
列を追加する	-14.1552
乗を引いた値を掛けた値に	-14.1595
▁heapP	-14.1665
90、	-14.1677
の集合をソートした列	-14.1699
1600	-14.1706
▁81	-14.1709
▁INT	-14.1723
、(10	-14.1785
番目で割った値を	-14.1796
を加えた値番目の列	-14.1811
を加えた値番目番目を	-14.1818
、0、0	-14.1819
▁(6、	-14.1823
、4、2、1	-14.1842
を引いた値の絶対値を加えた値に	-14.1859
を返す関数を適用した列の組を	-14.1874
の集合の論理積	-14.1897
[1]*	-14.1898
[2]}	-14.1917
の対数	-14.1921
75	-14.1938
)+4)	-14.1948
、1、0	-14.1957
を適用した列の最大値	-14.1984
で分割した文字列リスト	-14.2
▁matrix	-14.2009
▁54	-14.2018
▁pare	-14.2018
//2+1)	-14.2023
(1-	-14.2024
の最大値をネイピア数とする	-14.2026
10**9	-14.2032
inM	-14.2037
ec	-14.207
つまりネイピア数番目の	-14.2071
[2:])	-14.2076
の末尾を掛けた値を加えた値	-14.2077
valu	-14.208
.000000	-14.2085
%60	-14.2091
の末尾を除いた部分列を加えた値を	-14.2091
.00001	-14.2095
を返す関数を適用した列の総和	-14.2114
の浮動小数点数に	-14.2123
▁34	-14.2131
の整数	-14.2134
▁0.000	-14.2138
を引いた値回分の列	-14.2139
を掛けた値番目が	-14.2148
の文字を	-14.215
つまり空列の	-14.2177
[5:])	-14.2184
乗の文字列を	-14.2204
の浮動小数点数で割った値を	-14.221
)%	-14.2225
を引いた値で整形した文字列	-14.2225
、1、0、1、2、3、4、5、6	-14.2226
をネイピア数から	-14.2229
ro	-14.2233
0003	-14.2234
で割った値以下のとき	-14.2239
、3、5、7、	-14.224
orm	-14.2242
leap	-14.2242
greed	-14.2242
-2、-2、-2、	-14.2243
の平方根を掛けた値を	-14.2244
▁bo	-14.2244
multiple	-14.2245
3、-2、-1	-14.2245
element	-14.2245
strong	-14.2246
▁最	-14.2246
▁bom	-14.2246
two	-14.2246
262913	-14.2246
、(19、7、	-14.2246
番目の整数値までの部分列に	-14.2246
▁Union	-14.2246
structure	-14.2246
65921	-14.2246
:0>2}:{	-14.2246
ROUNDS	-14.2246
hexversion	-14.2246
16577	-14.2246
pattern	-14.2246
reate	-14.2246
ulate	-14.2246
▁loadable	-14.2246
変	-14.2246
19120730	-14.2246
19261225	-14.2246
midpoint	-14.2246
quadrance	-14.2246
▁Puzzle	-14.2246
▁ccompare	-14.2246
ス	-14.2246
Chain	-14.2246
▁debt	-14.2246
▁saiki	-14.2246
▁trucks	-14.2246
LIN	-14.2246
RemoveEdge	-14.2246
release	-14.2246
subsequence	-14.2246
three	-14.2246
trunc	-14.2246
▁(100.0、0.0)	-14.2246
▁chenge	-14.2246
▁formatHHMMSS	-14.2246
▁warshalFloyd	-14.2246
center	-14.2246
mess	-14.2246
profit	-14.2246
rhombus	-14.2246
▁32768	-14.2246
▁body	-14.2246
▁soinnsuubunnkai	-14.2246
1、4、1、4、1、2、1、2)	-14.2246
3.14159265359	-14.2246
734858	-14.2246
75.0、81.0、91.0、1	-14.2246
CLOCKWISE	-14.2246
DISTANT	-14.2246
ExhaustiveSearch	-14.2246
LifoQueue	-14.2246
SIBLING	-14.2246
atSameSide	-14.2246
before	-14.2246
buttons	-14.2246
cirucumcenter	-14.2246
dim	-14.2246
eliminat	-14.2246
enamientoBurbuja	-14.2246
eratosthenes	-14.2246
five	-14.2246
imumSpanningTree	-14.2246
interest	-14.2246
island	-14.2246
moat	-14.2246
overflow	-14.2246
robin	-14.2246
safe	-14.2246
salesman	-14.2246
swim	-14.2246
▁123456	-14.2246
▁BellmanFord	-14.2246
▁Clear	-14.2246
▁Close	-14.2246
▁Goldbach	-14.2246
▁KDTree	-14.2246
▁Knapack	-14.2246
▁LowLinks	-14.2246
▁MatrixRKSearch	-14.2246
▁Open	-14.2246
▁Seat	-14.2246
▁accum	-14.2246
▁collatz	-14.2246
▁dsett	-14.2246
▁getSuccessor	-14.2246
▁isConnected	-14.2246
▁maxHeapfy	-14.2246
▁scipy	-14.2246
▁setQueen	-14.2246
▁small	-14.2246
TopologicalSort	-14.2246
dth	-14.2246
exsist	-14.2246
mayan	-14.2246
winning	-14.2246
▁Draw	-14.2246
▁SegmentTreeDual	-14.2246
▁Test	-14.2246
▁WarshallFloyd	-14.2246
▁clause	-14.2246
▁combine	-14.2246
▁genClues	-14.2246
▁pyon	-14.2246
▁sdk	-14.2246
5736397	-14.2246
Cube	-14.2246
ListIterator	-14.2246
NODE	-14.2246
NORTH	-14.2246
RangeAddRangeSum	-14.2246
SEARCH	-14.2246
[::-1])	-14.2246
arProbingIntSet	-14.2246
blank	-14.2246
denominator	-14.2246
findBrack	-14.2246
jfen	-14.2246
people	-14.2246
poli	-14.2246
solution	-14.2246
truediv	-14.2246
xicalOrderedList	-14.2246
▁BalancedBst	-14.2246
▁DSUWeighted	-14.2246
▁HashMap	-14.2246
▁Johnson	-14.2246
▁LazySegTree	-14.2246
▁Logger	-14.2246
▁OrderedDict	-14.2246
▁RSQ	-14.2246
▁RangeQuery	-14.2246
▁SME	-14.2246
▁Treap	-14.2246
▁TreeDiameter	-14.2246
▁TreeIndex	-14.2246
▁countDuplicate	-14.2246
▁getMinimum	-14.2246
▁getShift	-14.2246
▁identity	-14.2246
▁initialize	-14.2246
パラメータなしとして	-14.2246
Update	-14.2246
connect	-14.2246
▁doChain	-14.2246
▁isStable	-14.2246
▁stableCheck	-14.2246
Multiplication	-14.2246
multiplication	-14.2246
▁Near	-14.2246
▁Out	-14.2246
27179461	-14.2246
after	-14.2246
meetinthemiddle	-14.2246
minkows	-14.2246
nth	-14.2246
tosec	-14.2246
▁Flip	-14.2246
▁dcmp	-14.2246
▁exec	-14.2246
judgement	-14.2246
remaining	-14.2246
▁thirdRoot	-14.2246
axis	-14.2246
trai	-14.2246
▁trave	-14.2246
マ	-14.2246
trim	-14.2246
getSibling	-14.2246
high	-14.2246
▁3652425	-14.2246
▁nxt	-14.2246
▁changeBoard	-14.2246
(0、2、6、	-14.2246
▁identi	-14.2246
4193	-14.2246
Bustime	-14.2246
maxFlow	-14.2246
▁drawable	-14.2246
▁(0.0、0.0)	-14.2246
▁Map	-14.2246
▁factoring	-14.2246
circums	-14.2246
eaf	-14.2246
▁moveNodeW	-14.2247
tanri	-14.2247
▁moveNodeS	-14.2247
した値の浮動小数点数	-14.2247
▁Val	-14.2247
▁tformat	-14.2247
4096	-14.2247
lowlink	-14.2247
+10*	-14.2247
った	-14.2247
bmi	-14.2247
<<1)	-14.2247
another	-14.2247
▁(10、10)	-14.2247
numer	-14.2247
field	-14.2247
▁QueueNode	-14.2247
PO	-14.2247
,0,0,0,0)	-14.2247
fee	-14.2247
▁upd	-14.2247
▁hpop	-14.2247
▁sec	-14.2247
building	-14.2247
lots	-14.2247
weed	-14.2247
[0]],1)	-14.2247
▁checker	-14.2247
▁DATA	-14.2247
▁moveNodeN	-14.2248
▁chi	-14.2248
▁extended	-14.2248
validpos	-14.2248
ut	-14.2248
hours	-14.2248
40)*	-14.2248
▁abc	-14.2248
の順序数より小さいかどうかが	-14.2248
OP	-14.2248
(1、4)	-14.2249
[:4]	-14.2249
▁lb	-14.2249
▁scan	-14.2249
ccp	-14.2249
Sch	-14.2249
▁decoder	-14.225
▁hpush	-14.225
▁Mst	-14.225
passable	-14.2251
[1]*5	-14.2251
▁lis	-14.2251
rib	-14.2251
1073	-14.2252
で割った値の正弦を掛けた値を	-14.2252
//2:]	-14.2253
で割った値乗で割った値	-14.2253
144000	-14.2253
▁50025	-14.2253
番目で割った商を掛けた値だけ	-14.2254
need	-14.2255
[-2])	-14.2257
ンの各要素に	-14.2257
deletefirst	-14.2257
(10,5	-14.2257
calcDp	-14.2258
0011	-14.2258
の整数値で割った商	-14.2259
ls	-14.2259
の論理積または	-14.226
down	-14.226
▁50050	-14.226
balanced	-14.2261
▁isU	-14.2261
▁200020	-14.2261
▁matpow	-14.2263
▁100000.0	-14.2263
の集合を引いた値を	-14.2263
50022	-14.2264
55000	-14.2266
▁bisector	-14.2266
くかつ	-14.2267
groups	-14.2267
▁Stable	-14.2268
dde	-14.2268
75.0	-14.227
を引いた値を加えた値の絶対値	-14.227
▁popback	-14.2271
intersections	-14.2271
▁calcu	-14.2271
deletelast	-14.2273
の集合の各要素を	-14.2273
、23、	-14.2274
jd	-14.2275
(10,3	-14.2276
(100,0)	-14.2277
の総和を加えた値から	-14.2277
を加えた値の文字の列を	-14.2278
列を追加して	-14.2279
hc	-14.2279
の集合の論理積を	-14.2281
▁numb	-14.2281
を取り除いた文字列の整数値	-14.2283
▁isstable	-14.2283
▁Le	-14.2284
で割った値の列の最大値	-14.2286
▁emul	-14.2287
call	-14.2289
▁sb	-14.2291
-1911	-14.2291
fillvalue	-14.2293
を引いた値番目の最大値に	-14.2293
未満までの数列の逆順の各要素を	-14.2298
を引いた値番目の列が	-14.2298
を掛けた値に改行文字を加えた値に	-14.2298
▁moveNodeE	-14.2301
積の各要素を	-14.2302
番目までの部分列の整数値に	-14.2304
の末尾を除いた部分列の各要素を	-14.2308
から読み込んだ行の列の各要素を	-14.231
fall	-14.2311
▁pm	-14.2311
)**2+(	-14.2312
乗より小さい	-14.2315
forDinE	-14.2315
番目の先頭で割った値	-14.2318
,[0]*	-14.2325
、57	-14.2326
For	-14.2326
388	-14.233
50000)	-14.2332
[0]].	-14.2333
、54	-14.2334
で割った余りかつ	-14.2335
番目の列の総和の列を	-14.2337
[2:]))	-14.2339
+1+	-14.2339
の先頭の末尾	-14.2343
+1,0,	-14.2345
rq	-14.2347
(1000,10**9+7,	-14.2347
を加えた値までの	-14.2352
した値の整数値	-14.2353
と等しくないかどうか番目に	-14.2354
乗で割った値を返す	-14.2355
(4*	-14.2355
を加えた値までの部分列の各要素を	-14.2361
gine	-14.2361
vabs	-14.2362
▁223	-14.2363
ITE	-14.2363
▁Any	-14.2373
の論理積を引いた値番目の	-14.2376
81.0	-14.2376
91.0	-14.2386
を加えた値番目の整数値だけ	-14.2386
つまりネイピア数の整数値	-14.2387
qsize	-14.2387
の長さと等しくない	-14.2389
ソートした列を順に	-14.2391
AifB	-14.2395
setsize	-14.2398
▁Min	-14.2399
▁340	-14.2401
の先頭を除いた部分列の整数値に	-14.2402
番目の順序数	-14.2406
50020	-14.2408
列のリストの列を	-14.2409
sd	-14.241
-1,-	-14.241
空白改行を取り除いた文字列内の	-14.241
())])	-14.2417
を掛けた値をネイピア数	-14.242
0110	-14.2429
番目番目と等しいかどうかが	-14.243
で割った値を加えた値の整数値を	-14.2431
番目の整数値番目の末尾に	-14.2434
360.0	-14.244
の文字に	-14.2441
1、15	-14.2441
2):.	-14.2441
▁3800	-14.2445
の整数値回分の列	-14.246
間隔による部分列の総和を	-14.2464
25.0	-14.2473
1、1、1	-14.2474
の絶対値を加えた値に	-14.2486
[2**	-14.2488
1.01	-14.249
に空白文字を加えた値を	-14.2491
を加えた値で割った値の列	-14.2495
ad	-14.2498
-1、2)	-14.2501
の順序数を引いた値に	-14.2504
を掛けた値を加えた値の列	-14.2505
▁323	-14.2511
とするとするとするとする	-14.2512
を引いた値乗だけ	-14.2515
て整数値を掛けた値を加えた値	-14.2524
274	-14.2526
▁sett	-14.2535
**2+(	-14.2537
▁temp	-14.254
で割った商までの部分列を加えた値	-14.2553
を加えた値の列の総和を	-14.2565
twin	-14.2567
先頭を英大文字に変換した文字列に	-14.2572
▁ra	-14.2573
で割った値より大きいとき	-14.2585
999999)	-14.2586
を掛けた値で整形した文字列	-14.2586
を加えた値を返す関数を適用した列	-14.2586
、75	-14.2592
ry	-14.2598
で割った商を掛けた値を	-14.2609
▁77	-14.2609
の文字の列	-14.2618
のリストの	-14.2622
,0,0,1,	-14.2629
isface	-14.2636
[:-1])	-14.2636
と等しいかどうか番目に	-14.2642
の先頭を加えた値の整数値	-14.2645
の平方根に	-14.2656
番目を掛けた値を引いた値を返す	-14.2666
▁counta	-14.2674
154	-14.2688
未満までの数列の集合から	-14.2689
(9)	-14.2689
の長さ番目に	-14.2712
(8)	-14.2719
の最小値の列の総和を	-14.2722
▁solver	-14.2723
からなる列と等しくない	-14.2731
を加えた値番目の整数値に	-14.2736
だけ右シフトした値に	-14.274
を掛けた値の整数値に	-14.2747
fy	-14.2753
乗で割った余りを	-14.2759
][0]-	-14.2759
(-1、2	-14.2768
))%	-14.2786
▁2400	-14.2794
番目の最大値に	-14.2798
[2]==	-14.28
13)	-14.2808
*10	-14.281
fromNode	-14.2811
を引いた値番目の各要素を	-14.2814
▁plist	-14.2834
番目を掛けた値を加えた値が	-14.2839
dt	-14.2859
番目を引いた値番目を加えた値	-14.287
で割った商を引いた値を	-14.2878
を引いた値をソートした列を	-14.2878
の末尾に空文字列を	-14.2886
を加えた値をネイピア数から	-14.2887
199	-14.289
9、1	-14.2898
の論理和を掛けた値を加えた値	-14.29
2、3、5、	-14.2908
▁getkey	-14.2913
のリストの先頭を	-14.2915
を引いた値の絶対値の最大値	-14.2931
の余弦を掛けた値を引いた値の	-14.2947
より小さいかどうかを	-14.2949
244	-14.2959
10000001	-14.2971
182	-14.2985
の列の最大値の	-14.2989
を引いた値乗を掛けた値	-14.3015
48.0、	-14.3048
円周率に	-14.3062
を引いた値の最大値から	-14.3063
番目以上かつ	-14.3063
を加えた値までの部分列の最大値	-14.3064
を加えた値番目を引いた値の絶対値	-14.3067
▁44	-14.3072
番目と等しいかどうかを返す	-14.3073
以上かどうかの整数値	-14.3074
▁99000001	-14.3079
100005	-14.3085
▁LIS	-14.3085
▁Soinsu	-14.3085
▁isFull	-14.3085
▁contract	-14.3086
▁palindrome	-14.3086
:]+	-14.3091
▁takewhile	-14.3093
(0、0、	-14.3102
で割った商を加えた値から	-14.3123
▁(0、3)	-14.313
に文字	-14.3153
の最大値の列の総和を	-14.3184
(1/	-14.3196
で割った値の整数値が	-14.3208
を引いた値の文字列を加えた値を	-14.3215
で割った余りでないときの	-14.3245
の先頭の文字列	-14.3252
3000)	-14.3253
を円周率を	-14.3256
▁fa	-14.3273
日の日時	-14.3286
番目にソート順で	-14.3308
+2],	-14.3315
だけ左シフトした値が	-14.3323
からなる列をソートした列	-14.3326
の先頭の整数値番目	-14.3333
cp	-14.3343
番目だけ左シフトした値と	-14.3366
余に	-14.3373
▁入力された文字列の整数値が	-14.3373
((0,0,	-14.339
dec	-14.3405
の先頭の整数値から	-14.3412
を引いた値番目の列	-14.3415
、-1、	-14.3416
][7:]))	-14.342
62	-14.3426
の長さを加えた値を	-14.3426
▁de	-14.3429
(10,	-14.3442
▁printNode	-14.3451
番目をネイピア数に	-14.3463
を加えた値を掛けた値を加えた値に	-14.3471
を掛けた値を加えた値番目	-14.3482
▁22.0	-14.3482
、(-1、-	-14.3508
not	-14.3519
を反転した列を展開して	-14.3525
▁160.0	-14.3541
番目までの部分列をソートした列	-14.3566
だけ右シフトした値番目	-14.3568
(-1、	-14.3612
以下かどうかを掛けた値	-14.3624
を引いた値乗を掛けた値を	-14.363
つまり空白文字の列	-14.3646
の集合の論理和をソートした列を	-14.3663
0.05	-14.3669
▁(-1、2	-14.3679
、(1、3、	-14.3695
の整数値番目	-14.3736
つまり空白文字の出現回数	-14.3762
で割った値を加えた値の整数値	-14.3763
の整数値の文字列を	-14.3767
の先頭番目の先頭	-14.3772
decrypt	-14.3774
isSame	-14.3774
reach	-14.3775
diam	-14.3777
chk	-14.3778
36524	-14.3781
71.0	-14.3783
の各要素に整数を適用した列の集合	-14.3796
からなる列の最大値	-14.3799
▁-1000000000	-14.3803
239	-14.3805
▁unique	-14.3829
cs	-14.3844
の組番目の	-14.3848
typ	-14.3867
の整数値を加えた値に	-14.3873
List	-14.3874
と等しい要素の最初の位置番目の	-14.3883
▁入力された文字列の末尾	-14.3919
104743	-14.3933
(1、0、-1、0)	-14.3935
番目を加えた値番目が	-14.3937
Search	-14.3942
][1]-	-14.3945
con	-14.396
Board	-14.3979
(-1、0、1、0)	-14.398
splice	-14.3988
0.0000001	-14.3989
を引いた値乗に	-14.3995
999	-14.3997
mean	-14.3999
heuristic	-14.4018
bs	-14.4018
bitDP	-14.4019
SPFA	-14.4019
の先頭の整数値が	-14.403
の文字列のリストの各要素	-14.4035
flatten	-14.4036
Circle	-14.4036
の先頭を引いた値を掛けた値	-14.405
warshallFloyd	-14.4055
bubbleSort	-14.4055
(0,0,0,	-14.4055
fibo	-14.4056
wa	-14.4066
conv	-14.4066
と等しい要素の最初の位置の最小値	-14.4067
sgn	-14.4068
warshall	-14.4074
Segment	-14.4075
random	-14.4076
partition	-14.4078
term	-14.4078
combinations	-14.4079
を引いた値のリスト	-14.408
expr	-14.4081
super	-14.4081
▁(0、-1)	-14.4084
/100	-14.4087
番目番目を返す	-14.4095
96	-14.4102
((-1、0)	-14.4108
([]	-14.4127
100003	-14.4155
▁'+	-14.4162
((-1、-1)	-14.4173
を加えた値を加えた値が	-14.4176
▁ap	-14.4181
、2000	-14.4204
の集合の	-14.4237
▁cal	-14.4241
*2+1	-14.4255
で割った余りを加えた値	-14.4286
▁propagate	-14.4291
▁perm	-14.4293
▁quad	-14.4302
▁reachable	-14.4305
▁clock	-14.4315
30)	-14.4316
▁9999999	-14.4332
(1001	-14.4336
の最小値の最小値	-14.4358
を掛けた値だけ左シフト	-14.436
,{	-14.4361
▁pw	-14.4382
68	-14.44
座標の文字列	-14.4409
番目の順序数に	-14.4419
引いた値の文字列を長さ	-14.4443
EQ	-14.4444
}))	-14.4463
を掛けた値の整数値から	-14.4466
座標を引いた値で割った値を	-14.4471
5000	-14.4502
%2	-14.4503
+1,1,	-14.4549
▁1003	-14.4552
],0)	-14.4577
のリ	-14.4585
で割った商を掛けた値を加えた値を	-14.4586
の列の総和の列	-14.4605
で割った商の整数値	-14.4635
を取り出した値の整数値を	-14.4645
150001	-14.4657
ルム	-14.4674
▁xn	-14.4684
(1、1、	-14.4698
4、6)	-14.4707
加えた値の最大値を	-14.4709
の長さと等しいかどうかが	-14.471
▁50.0	-14.4722
空白文字を	-14.4734
をソートした列の各要素を	-14.474
▁69	-14.4747
入力された文字列の整数値から	-14.4765
の整数値回分の列の各要素を	-14.4772
回分の列を加えた値回分の列	-14.4808
_2(	-14.4822
の整数値を探して見つかった位置	-14.4825
の平方根で割った値	-14.4848
の集合を引いた値のリストを	-14.485
▁180.	-14.4856
を無限に繰り返した列	-14.4857
3、6)	-14.4884
(0、(	-14.4894
の総和の最大値	-14.4908
で割った値を加えた値に	-14.4918
を引いた値の絶対値を加えた値が	-14.4938
▁hld	-14.494
▁10002	-14.4948
▁Face	-14.4971
030	-14.4971
で割った商の列	-14.5015
で割った商までの部分列	-14.5024
を掛けた値の列の総和を返す	-14.5091
2500	-14.5128
を加えた値の平方根を	-14.5151
、(1、	-14.5193
の最大値と等しいとき	-14.5197
の論理積の論理和	-14.5207
625	-14.521
の出現回数の最小値	-14.5213
▁37.5	-14.5222
の先頭を除いた部分列の総和	-14.5222
/4	-14.5253
(0、3、6)	-14.5258
3)+	-14.5267
返す関数で集約した列を返す	-14.5276
を引いた値番目番目の	-14.5289
かどうかの列が全てが真	-14.529
を加えた値番目の最小値	-14.531
(0、-2)	-14.533
の先頭を除いた部分列の整数値が	-14.5339
ット	-14.5343
の要素をそれぞれ組にした列を	-14.5356
数文字列を	-14.5373
の組の列をソートした列	-14.5378
商	-14.5391
▁75	-14.5394
を掛けた値の文字列を	-14.54
の絶対値の列の最小値	-14.5416
*100	-14.5416
9+	-14.5422
、4)	-14.5426
(-(	-14.5438
**.5)	-14.5443
-1)+	-14.5454
*2+	-14.5457
関数	-14.546
に含まれるかどうかの列	-14.5477
までの部分列の最大値	-14.5495
を取り除いた文字列	-14.5497
の正弦を	-14.5504
を掛けた値に改行文字を加えた値	-14.5514
番目に空白文字を加えた値	-14.5539
に番号付した組の列	-14.5548
の論理積をソートした列を	-14.5548
1)])	-14.5552
alpha	-14.5559
orth	-14.5575
,4,6,	-14.5577
4,2,4,	-14.5579
、(2、5、8)	-14.5579
%3600)//60	-14.5579
▁(35.5、37.5、40	-14.5579
が全てが真かどうか	-14.5579
hana	-14.558
integ	-14.558
occu	-14.558
variance	-14.558
、36、4	-14.558
より大きいかどうかの列が	-14.558
(0、2、5	-14.558
intervals	-14.558
imal	-14.558
、1、0、1、2、3、4、5	-14.558
*12+	-14.558
乗の列の総和の平方根を	-14.558
"6"	-14.558
"7"	-14.558
を追加し	-14.558
0、19)	-14.558
9、7、8、	-14.558
ンタの値の集まりをソートした列	-14.558
以上かどうかの列が全てが真または	-14.558
"5"	-14.558
([1,2,	-14.558
、2、6、1	-14.558
▁(0、1、2、3、4、5	-14.558
1、77、	-14.558
▁(0、-1、0、1)	-14.558
、(0、-1、0、1)	-14.558
を加えた値の列の順列のリストを	-14.558
▁tan	-14.558
(6、4)	-14.558
▁(-1、0、1、	-14.5581
mple	-14.5581
▁rand	-14.5582
(1、1、0)	-14.5582
▁tsp	-14.5582
▁0、1、2、3	-14.5583
、100、10、1	-14.5583
+380*	-14.5584
を引いた値の絶対値を返す関数を	-14.5584
,[-1]*	-14.5584
efa	-14.5585
*380	-14.5585
▁{}:"	-14.5585
)/3,(	-14.5586
▁改行せずに書式	-14.5586
0、1、4、	-14.5586
の先頭の長さを返す関数を	-14.5587
(-1、-1、-1)	-14.5587
+5*	-14.5588
した値のとき	-14.5588
4、4)	-14.5589
で割った余りを加えた値の文字	-14.5589
mill	-14.5589
の長さ以上または	-14.5592
番目の順序数を加えた値を	-14.5594
)**2)**0.5	-14.5595
)/3)	-14.5596
2000000)	-14.5598
+3*	-14.5598
+1)*(	-14.56
数を掛けた値を	-14.5601
番目の排他論理和と	-14.5602
未満までの数列の集合と	-14.5604
つまり空文字列と等しくない	-14.5608
個までの順列の各要素を	-14.5609
で割った余りまたは	-14.5612
1.0/	-14.5615
+3)	-14.5616
の先頭の先頭で割った値	-14.5617
*2],	-14.5618
+1)]))	-14.5618
//4	-14.562
集合のとき	-14.5622
、121、1	-14.5623
を掛けた値の正弦に	-14.5625
イル	-14.5627
を加えた値未満までの数列の	-14.5627
だけ右シフトした値より大きいとき	-14.5629
-1925	-14.563
-1867	-14.5631
つまり末尾までの部分列の逆順を	-14.5631
5)+	-14.5634
の先頭の絶対値	-14.5634
-1988	-14.5635
[3]})	-14.564
番目の整数値を挿入する	-14.5641
をソートした列の列を	-14.5641
+1]-	-14.5641
}){	-14.5643
の総和を掛けた値を加えた値	-14.5644
適用した列のリストをソートした列	-14.5645
(2**	-14.5646
、(2、1、	-14.5646
**2)**.5	-14.5661
/100)	-14.5663
-1*	-14.5664
-1,3)	-14.5665
、2)	-14.5669
つまり円周率を引いた値を	-14.5669
▁sa	-14.5673
を加えた値までの部分列の最小値	-14.5676
を引いた値番目を引いた値の絶対値	-14.5677
番目の長さを掛けた値を	-14.5679
▁ifprime	-14.5679
-1,2)	-14.5681
▁sib	-14.5682
6、8	-14.5682
番目を引いた値番目を加えた値が	-14.5683
の排他論理和のとき	-14.5688
掛けた値の列の最大値を	-14.569
した値に	-14.5693
番目の先頭を返す関数をキーとして	-14.5697
"4"	-14.5702
の文字を出力する	-14.5707
した文字列を加えた値に	-14.5708
5、33	-14.5711
だけ左シフトした値の排他論理和を	-14.5717
▁無限の整数列の長さが	-14.5717
の整数値を挿入する	-14.5719
、(3、2、1	-14.5724
を引いた値を引いた値	-14.5731
(3*	-14.5731
に整数を適用した列の組に	-14.5739
(1868、	-14.5739
、(2、3	-14.574
を加えた値までの部分列の総和が	-14.5741
,[(-	-14.5745
列の逆順を	-14.5746
▁(1、1、1、1、	-14.5753
番目以下かどうか	-14.5754
、55.0	-14.5754
、70.0	-14.5754
、43.0	-14.5756
,6])	-14.5758
▁((-10	-14.5758
ないときの	-14.5759
で割った商を掛けた値だけ	-14.576
で分割した字句列の先頭の整数値	-14.5762
番目の論理積の長さ	-14.5764
番目の要素をそれぞれ組にした列	-14.5777
9、12	-14.5786
の先頭番目と	-14.5786
に入力された文字列を加えた値	-14.5795
の論理和のリストを	-14.5796
を引いた値を加えた値の最小値を	-14.5798
[0]-1)	-14.5802
で割った商より小さい	-14.5802
を掛けた値を引いた値を掛けた値に	-14.5805
て整数値が	-14.5813
▁(0、31、2	-14.582
))).	-14.5822
(0,-	-14.5824
▁((1、2、3	-14.5844
で割った値を加えた値の平方根を	-14.5853
つまりネイピア数の先頭番目が	-14.5855
▁100000000000000	-14.5856
番目に空白文字を加えた値に	-14.5871
ルターした列を	-14.5874
入した整数値の整数値	-14.5876
の整数値の列をソートした列	-14.5883
を英大文字に変換した文字列を返す	-14.5885
を引いた値以上かどうか	-14.5886
0,[])	-14.5889
を引いた値番目で割った商を	-14.5902
整数値の整数値を	-14.5904
、(0、3、6)	-14.5916
*3)	-14.5917
の論理積の排他論理和を	-14.5921
を加えた値番目と等しいかどうかが	-14.5926
+2,(	-14.5932
ga	-14.594
5、5	-14.5952
の文字列のリストを	-14.5952
番目に含まれまたは	-14.5965
][1]*	-14.5967
*60	-14.5969
の日付に	-14.5975
の先頭の先頭番目を	-14.6
で割った商を引いた値が	-14.6004
の長さと等しくかつ	-14.6009
の排他論理和番目が	-14.6015
▁mak	-14.6016
▁articulation	-14.6018
▁41412121	-14.6019
▁marge	-14.6019
▁Euc	-14.602
▁dprod	-14.602
▁Piece	-14.602
▁expand	-14.602
▁getInt	-14.602
▁policy	-14.602
▁104730	-14.602
▁cipher	-14.602
▁triArea	-14.602
▁getDepth	-14.602
▁1299709	-14.602
▁getScore	-14.602
▁isPacked	-14.602
▁CheckDisit	-14.602
▁PuzzleState	-14.602
▁proj	-14.6021
▁kj	-14.6022
▁myhash	-14.6023
つまり空辞書の列の列	-14.6032
([0]+	-14.6035
▁position	-14.6038
を加えた値番目以上のとき	-14.6048
▁findk	-14.6053
の先頭で割った値を	-14.6054
▁1440	-14.6057
で割った商を加えた値の最大値を	-14.6074
を引いた値の総和を	-14.608
▁listing	-14.6084
(0、-1)	-14.6095
▁89	-14.6098
とネイピア数	-14.6103
▁crossPoint	-14.6107
の長さで割った値に	-14.6114
番目までの部分列の整数値	-14.6123
を反転した列の各要素	-14.6144
からなる辞書の列	-14.6145
にマッチした文字列の列を	-14.617
番目の長さを返す	-14.6183
の列の総和を掛けた値	-14.6189
(1.0	-14.6195
%60)	-14.6201
、50.0	-14.6206
▁196	-14.6212
の先頭で整形した文字列を	-14.6214
,0,0,0)	-14.6228
度順の列の	-14.6233
)|	-14.6233
の末尾を引いた値を	-14.6236
つまり辞書の列	-14.6239
,-1,0)	-14.627
の整数値番目の先頭	-14.6301
ネイピア数と	-14.6302
で割った商を引いた値から	-14.6302
を加えた値番目の列を	-14.6315
間隔の数列を	-14.6336
//60	-14.6347
(2、1、0)	-14.6362
の長さで割った余り番目	-14.6363
と等しくないかどうかの列の総和	-14.6378
1、0、0、1	-14.6392
▁getid	-14.6396
を加えた値番目の先頭の	-14.6437
を加えた値の整数値に	-14.6447
番目のコピー	-14.6454
の集合の列	-14.6456
以下かどうかに	-14.6501
の平方根で割った値を	-14.6506
inW	-14.6516
と等しいかどうか番目	-14.6548
ンタのキーと値の集まり	-14.6559
を引いた値を返す関数を適用した列	-14.6582
と等しい要素の最初の位置番目が	-14.6582
▁144	-14.6587
nts	-14.6593
の文字列の逆順を	-14.6633
▁225	-14.6652
の先頭内の	-14.6667
つまり無限大を	-14.667
無限の整数列の文字列	-14.6677
▁無限の整数列の末尾に	-14.6684
▁100.00000000	-14.6746
0、1520	-14.6749
の文字列の列	-14.6766
▁無限の整数列に	-14.677
番目の論理積の	-14.6771
乗を掛けた値で割った値を	-14.6779
の絶対値の最大値	-14.6793
▁taro	-14.6805
(1,0,	-14.6824
,-(	-14.6825
を取り出した値の整数値	-14.683
1400、	-14.6839
▁fibonacchi	-14.6847
を返す関数を適用した列の総和を	-14.6849
Card	-14.6857
番目の論理和が	-14.6874
▁Con	-14.6882
,(0,0,	-14.6893
番目で割った商	-14.6902
の列をソートした列の各要素を	-14.691
つまり円周率から	-14.6919
を引いた値番目の整数値を	-14.6948
からなる列内の	-14.6964
▁現在の日時に	-14.7002
*4	-14.7004
1200、	-14.7005
で割った余りの論理値を加えた値を	-14.7007
の列の最大値乗	-14.7009
を除いた部分列の総和を	-14.7031
した文字列の	-14.7056
、1520	-14.7057
の長さ未満までの数列の	-14.7088
、(4	-14.7122
inH	-14.7126
を連結した文字列を加えた値を	-14.7132
を空文字列を間に入れて	-14.7135
列を順に	-14.7136
▁100+	-14.715
▁100、0	-14.7183
、8)	-14.7242
の出現回数を掛けた値	-14.7246
の先頭の各要素を	-14.7249
を加えた値番目を掛けた値	-14.7264
排他	-14.7288
4、1、4、1、2、1、2、1	-14.7301
を加えた値で割った値	-14.7338
、1、3	-14.7348
番目の最小公倍数	-14.7361
つまり無限大の	-14.738
換した文字列を	-14.7382
2、1、0)	-14.7413
を掛けた値を無限の整数列	-14.7423
を引いた値の列の総和を	-14.7471
56	-14.7481
、(0、0、0、0)	-14.7483
%5	-14.7515
[1]==	-14.7517
▁con	-14.7543
[0]](	-14.7546
で割った商を掛けた値	-14.7552
2、3、4、5、6、7、8、9	-14.756
を加えた値番目の最大値	-14.7579
、(0、5	-14.7599
を英小文字に変換した文字列内の	-14.7604
▁71.0	-14.7615
▁typ	-14.7629
を引いた値で割った余りを	-14.7635
▁(48	-14.7662
ap	-14.7663
をソートした列の先頭を	-14.7674
▁67	-14.7702
つまり辞書の	-14.7704
各要素に整数を適用した列の集合	-14.7721
を空白で分割した字句列の列	-14.7723
*50	-14.7755
▁36524	-14.7771
▁chk	-14.7774
▁diam	-14.7774
▁isSame	-14.7777
▁reach	-14.7777
▁decrypt	-14.7778
の最大値番目を	-14.7779
el	-14.7792
のビット長だけ左シフトした値	-14.7798
▁{2*	-14.7818
4000)	-14.7874
番目の列の総和を加えた値を	-14.7953
の先頭を探して見つかった位置	-14.7971
0,0,	-14.8017
3.0)	-14.8027
番目の整数値番目を	-14.8029
で割った余り番目を引いた値	-14.8092
に挿入できる位置を引いた値	-14.8093
を加えた値を引いた値から	-14.8142
50)	-14.8156
番目の末尾にネイピア数の先頭	-14.8159
*9	-14.8168
100.0	-14.8171
を適用した列	-14.8189
の先頭の長さから	-14.8195
を掛けた値を加えた値で割った値	-14.82
番目までの部分列の逆順を加えた値	-14.8229
{"	-14.8243
乗の整数値から	-14.8252
番目番目を加えた値を	-14.8291
の文字列を加えた値を	-14.8304
を加えた値にネイピア数を加えた値	-14.8323
番目が全て数字かどうか	-14.8333
0.01	-14.8348
▁((0、0、0、0)	-14.8367
つまり円周率を	-14.847
99999999	-14.8478
▁43	-14.8481
ju	-14.8493
の総和の最大値を	-14.8507
ps	-14.8523
(0、3)	-14.854
[0:	-14.8542
sosu	-14.855
frame	-14.8552
take	-14.8554
chessboard	-14.8556
INTER	-14.856
minute	-14.8563
Max	-14.8566
hour	-14.857
scal	-14.8577
の末尾を除いた部分列を加えた値	-14.8591
Mask	-14.8597
scores	-14.86
を引いた値の絶対値から	-14.8624
入力された文字列の浮動小数点数	-14.8636
の集合の論理和	-14.8653
番目を引いた値を引いた値	-14.8707
brea	-14.8713
ation	-14.873
を連結した文字列を返す関数を	-14.8736
▁47	-14.8754
の先頭を英小文字に変換した文字列	-14.878
10002	-14.8784
fibonacchi	-14.8798
4、5)	-14.8804
150000	-14.8804
deque	-14.8848
taro	-14.8849
palindrome	-14.8895
contract	-14.8895
Soinsu	-14.8896
isFull	-14.8896
LIS	-14.8897
99000001	-14.8906
3.14159265	-14.8915
takewhile	-14.8918
列の集合をソートした列を	-14.8929
operation	-14.8968
middle	-14.8976
の整数値の列のリストを	-14.8979
function	-14.898
extract	-14.898
tax	-14.9004
(0、1、0、-1)	-14.9005
720	-14.9009
bellman	-14.9013
BinaryTreeNode	-14.9018
attrgetter	-14.9018
select	-14.9019
Team	-14.9019
counter	-14.9041
levenshtein	-14.9053
combi	-14.9055
reconstruct	-14.9062
Queue	-14.9068
(1、3)	-14.9068
prepare	-14.9069
comb	-14.9075
binary	-14.9077
を加えた値にネイピア数の	-14.908
bubble	-14.9087
Koch	-14.9087
BFS	-14.9092
を適用した列の総和の列	-14.9124
の先頭を取り出した値を掛けた値	-14.9139
番目以上かどうか	-14.9144
3、4、5、6、7、8、9	-14.915
100.00000000	-14.9162
の論理積を加えた値	-14.917
の整数値を返す関数を	-14.9198
の逆順と等しいかどうか	-14.9243
sy	-14.9266
円周率を掛けた値で整形した文字列	-14.9275
2)])	-14.9282
、51	-14.9284
my	-14.9287
の先頭の長さ未満までの数列	-14.9297
のラジアンの余弦	-14.9297
に無限の整数列	-14.9315
だけ左シフトした値の排他論理和	-14.9322
間隔の数列のリストを加えた値を	-14.9343
を反転した列のリスト	-14.936
で置き換えた文字列の整数値を	-14.9362
0.2	-14.9374
連結した文字列の列の集合の長さを	-14.9375
153	-14.9388
の文字列で整形した文字列	-14.9395
.000000000000000	-14.9421
94	-14.9463
ea	-14.9464
(0、0、-	-14.9479
列の先頭を除いた部分列を	-14.9503
10、50、100、500)	-14.9506
番目を加えた値の列	-14.9512
の長さで割った余り番目を	-14.9533
▁(0、1、2、	-14.9537
を加えた値の絶対値	-14.9561
▁se	-14.9563
整数を適用した列の総和の列を	-14.9595
3)+1	-14.9611
を展開してを出力するの列	-14.9615
160.0	-14.9617
の総和の列を	-14.9635
67	-14.9641
を加えた値で割った値の整数値	-14.9653
の排他論理和番目と	-14.966
の集合を引いた値をソートした列を	-14.9695
1111111	-14.9705
探して見つかった位置を	-14.9707
で割った値を掛けた値を	-14.9739
以上かどうかが	-14.9746
を加えた値番目を引いた値	-14.976
22.0	-14.9787
の先頭の最小値	-14.9789
、83.0	-14.9791
のラジアンの正弦	-14.9809
かどうかの列が全てが真かどうか	-14.9826
の長さの文字列	-14.984
番目の先頭と等しくないとき	-14.9841
の整数値だけ左シフトした値	-14.9843
を引いた値乗を引いた値	-14.9844
▁((1、2)	-14.9846
6))	-14.9863
乗以下かどうかを	-14.9866
1、2、3)	-14.9872
より大きいかどうかを	-14.9874
return	-14.9875
(-2、-1	-14.9884
つまりネイピア数乗	-14.9896
、77.0	-14.9903
各要素に整数を適用した列の総和を	-14.9908
(1、2、	-14.9978
座標を掛けた値	-15.0024
した文字列を加えた値を	-15.0029
で整形した文字列を適用した列	-15.0033
現在の日時に	-15.0036
near	-15.0046
に入力された文字列を空白	-15.0047
ネイピア数で整形した文字列	-15.0066
ND	-15.0069
000.0	-15.0079
(-1,	-15.008
.85	-15.0083
00、1000、	-15.0091
の最小値の列を	-15.0113
のリストの長さ	-15.0129
▁116.0	-15.0154
▁89.0	-15.0155
xi	-15.016
▁105.0	-15.0168
▁55.0	-15.0176
書き込む	-15.0177
のリストの末尾を除いた部分列を	-15.0185
▁77.0	-15.0195
適用した列のリストの列を	-15.0198
▁(0、31、	-15.0199
の排他論理和をソートした列を	-15.0213
の先頭を除いた部分列に	-15.0215
の最小値までの部分列	-15.0222
7、8、9、5、4、3、2	-15.0223
列	-15.0223
▁9999999999	-15.0224
▁83.0	-15.0232
((1、2、3、4、5、6	-15.0254
▁43.0	-15.0257
整数値を掛けた値を	-15.027
に改行文字を加えた値に	-15.0271
乗を引いた値を掛けた値	-15.0283
の最大値の列を	-15.0283
490	-15.0307
のリストをソートした列の逆順を	-15.031
▁70.0	-15.0313
0000000	-15.0314
を引いた値以上かつ	-15.0317
の値の集まりをソートした列	-15.0324
を加えた値のリスト	-15.0327
乗で整形した文字列	-15.0328
の絶対値の最大値を	-15.0356
ount	-15.0364
0.0000000000000	-15.0372
ないとき	-15.0372
より大きいかどうか番目を	-15.0375
内で	-15.0387
CK	-15.04
((5、	-15.0412
を掛けた値を掛けた値	-15.0414
gin	-15.0416
0、1、2、2、	-15.0417
、89.0	-15.0421
、116.0	-15.0423
リストの	-15.0426
(1、1、1、	-15.0437
までの部分列の最小値	-15.0455
部分列	-15.0462
(2、0、	-15.0471
の列の総和から	-15.0482
の論理積を引いた値番目を	-15.0488
を引いた値番目で割った値	-15.0489
1、2、3	-15.049
-1、0、1、-1、	-15.05
//2+1	-15.0504
7*	-15.0504
を適用した列の各要素に	-15.0505
の列の最大値に	-15.0508
90.0	-15.0514
で割った余りの列の総和を	-15.0517
の集合のリストの長さ	-15.052
、105.0	-15.0528
に含まれ	-15.0532
値を	-15.0545
で割った余りでな	-15.0549
▁jo	-15.0549
で割った値を掛けた値を加えた値を	-15.0549
▁Com	-15.055
回分の列と等しいかどうか	-15.0554
▁0.00000	-15.0556
▁(0、1、2	-15.0556
の値の集まりの各要素に	-15.0558
の先頭番目の末尾	-15.056
番目の先頭の出現回数	-15.0564
ata	-15.0573
ler	-15.0573
の全てが英小文字	-15.0575
▁use	-15.0576
の整数値を掛けた値を加えた値	-15.0576
,-1,-1)	-15.0576
▁page	-15.0576
NTER	-15.0577
▁matri	-15.0577
fffff	-15.0577
ol	-15.0578
より大きく	-15.0578
ridge	-15.0578
キー	-15.0578
charge	-15.0579
▁include	-15.0579
candidate	-15.0579
▁ao	-15.0579
game	-15.0579
▁fraction	-15.0579
値番目を出力する	-15.0579
17*60+30<=	-15.0579
に改行文字を	-15.0579
日	-15.0579
時	-15.0579
000,10**9+7,	-15.0579
▁(5、9、13)	-15.0579
allocat	-15.0579
、196、2	-15.0579
8、9、5、4、3、2	-15.0579
▁whi	-15.0579
るかどうかの列が	-15.0579
*60+30	-15.0579
1720994	-15.0579
、(1、4、7)	-15.0579
▁magical	-15.0579
の対	-15.0579
0111111	-15.0579
brocot	-15.0579
▁InsertionSort	-15.0579
の論理	-15.0579
12121414	-15.0579
12141412	-15.0579
131841	-15.0579
14121214	-15.0579
14141212	-15.0579
16843009	-15.0579
1、1、1、1、1、2、2、2、	-15.0579
21214141	-15.0579
21414121	-15.0579
41212141	-15.0579
66306	-15.0579
attime	-15.0579
factrize	-15.0579
hukuri	-15.0579
pyplot	-15.0579
▁isOrthogonalLL	-15.0579
▁isParallelLL	-15.0579
▁isVisible	-15.0579
▁magic	-15.0579
、(3、4、5)	-15.0579
以上かどうかの列が全てが真	-15.0579
Items	-15.0579
▁dig	-15.0579
oker	-15.0579
1_000_000_007	-15.0579
42857	-15.0579
Block	-15.0579
Button	-15.0579
elimination	-15.0579
fukuri	-15.0579
naiseki	-15.0579
poligons	-15.0579
shorten	-15.0579
simplify	-15.0579
theta	-15.0579
▁circumcircle	-15.0579
▁cylinder	-15.0579
▁saizo	-15.0579
▁setcontext	-15.0579
の文字列を返す関数を適用した列	-15.0579
four	-15.0579
▁elim	-15.0579
、2、2、1、	-15.0579
、7、8)	-15.0579
(3、0、1、2)	-15.058
jection	-15.058
stant	-15.058
▁(1,1,"	-15.058
▁BipartiteGraph	-15.058
▁gengo	-15.058
▁integral	-15.058
▁isSolved	-15.058
▁juni	-15.058
▁message	-15.058
▁method	-15.058
▁stddev	-15.058
▁toggle	-15.058
▁wrought	-15.058
buzz	-15.058
▁1046527	-15.058
▁189.9	-15.058
▁32770	-15.058
▁4253024257	-15.058
▁equ	-15.058
▁fizz	-15.058
▁measure	-15.058
▁topologi	-15.058
(1868,9,8)	-15.058
({}{}{}))	-15.058
)-97)	-15.058
246911	-15.058
246913	-15.058
28.8675	-15.058
33.3333	-15.058
362880	-15.058
4788461845384244	-15.058
60:0>2}	-15.058
66.6667	-15.058
7.81481481481481	-15.058
9576923690768489	-15.058
CIRCUMCSCRIBING	-15.058
CIRCUMSCRIBED	-15.058
CONTAINING	-15.058
CROSS	-15.058
DoubleLinkedList	-15.058
EAST	-15.058
FORESIDE	-15.058
INCLUDED	-15.058
INSCRIBED	-15.058
INSCRIBING	-15.058
INTERSECTING	-15.058
Info	-15.058
MaxPQ	-15.058
NQUEENS	-15.058
NaN	-15.058
POOL	-15.058
Panel	-15.058
REMOVE	-15.058
ROOT	-15.058
RPN	-15.058
Runner	-15.058
SEGMENT	-15.058
SOUTH	-15.058
Task	-15.058
WEST	-15.058
[0,0],[100,0]	-15.058
calipers	-15.058
cket	-15.058
click	-15.058
column	-15.058
dictionary	-15.058
different	-15.058
engine	-15.058
getLength	-15.058
isAvailableAreas	-15.058
lakes	-15.058
letter	-15.058
ljust	-15.058
minkovski	-15.058
numerator	-15.058
pager	-15.058
payload	-15.058
rabin	-15.058
refrection	-15.058
relations	-15.058
ryoukin	-15.058
sharir	-15.058
that	-15.058
this	-15.058
tiles	-15.058
totient	-15.058
transformation	-15.058
uniteSets	-15.058
xlim	-15.058
ylim	-15.058
▁0.00000000001	-15.058
▁196470	-15.058
▁196471	-15.058
▁246912	-15.058
▁7.81481481	-15.058
▁Buffer	-15.058
▁Divisor	-15.058
▁EightPuzzle	-15.058
▁FifteenPuzzle	-15.058
▁Game	-15.058
▁JOIOI	-15.058
▁Judge	-15.058
▁KdTree	-15.058
▁KeyError	-15.058
▁LargestSquare	-15.058
▁MST	-15.058
▁MagicSquare	-15.058
▁MagicalTiles	-15.058
▁MultiSet	-15.058
▁NodeHeap	-15.058
▁Page	-15.058
▁Paper	-15.058
▁QuickUnion	-15.058
▁RAQandRSQ	-15.058
▁RKSearch	-15.058
▁RUQ	-15.058
▁Rummy	-15.058
▁SSSP	-15.058
▁SSST	-15.058
▁Sankakusu	-15.058
▁StringEditor	-15.058
▁UndirectedGraph	-15.058
▁Window	-15.058
▁badminton	-15.058
▁blackjack	-15.058
▁bublleSort	-15.058
▁carmichael	-15.058
▁checkQueen	-15.058
▁crossPointLL	-15.058
▁ctypes	-15.058
▁dimension	-15.058
▁election	-15.058
▁fourcard	-15.058
▁fudouten	-15.058
▁getMinprime	-15.058
▁gyakujun	-15.058
▁halve	-15.058
▁hierarchize	-15.058
▁isPutNum	-15.058
▁islice	-15.058
▁isstraight	-15.058
▁itom	-15.058
▁landsearch	-15.058
▁locate	-15.058
▁mami	-15.058
▁manacher	-15.058
▁marubatu	-15.058
▁midle	-15.058
▁otosu	-15.058
▁popBack	-15.058
▁printTime	-15.058
▁pylab	-15.058
▁queClass	-15.058
▁regist	-15.058
▁swapRange	-15.058
▁swappingBibs	-15.058
▁syakkin	-15.058
▁symdiff	-15.058
▁syou	-15.058
▁witch	-15.058
、(0、4、8)	-15.058
、(2、4、6)	-15.058
、2、0、-2、0、3、0、-3	-15.058
の先頭の整数値までの部分列に	-15.058
の整数値までの部分列内の	-15.058
の日時を	-15.058
の論理値の整数値を	-15.058
保	-15.058
全	-15.058
存	-15.058
小数	-15.058
末	-15.058
▁RangeUpdate	-15.058
▁checkStable	-15.058
▁sqmake	-15.058
1299710	-15.058
1900000	-15.058
fizzbuzz	-15.058
suffix	-15.058
ttt	-15.058
▁13860	-15.058
▁calGCD	-15.058
▁countSort	-15.058
▁printQueen	-15.058
▁randomAccess	-15.058
▁seki	-15.058
▁yaku	-15.058
678881	-15.058
8976445361682909	-15.058
GetExplored	-15.058
Pairs	-15.058
RIGHTSIDE	-15.058
WeightedUnionSet	-15.058
abac	-15.058
avacus	-15.058
collect	-15.058
detail	-15.058
diagonal	-15.058
division	-15.058
horizontal	-15.058
improved	-15.058
kagen	-15.058
missing	-15.058
normalize	-15.058
pla	-15.058
sian	-15.058
vertical	-15.058
xffffffff	-15.058
zyouzyo	-15.058
▁196666	-15.058
▁AhoCorasick	-15.058
▁BalancedBstSet	-15.058
▁Baseball	-15.058
▁BinarySearch	-15.058
▁BitMask	-15.058
▁Collatz	-15.058
▁EightQueen	-15.058
▁Forest	-15.058
▁IntSet	-15.058
▁LinkedList	-15.058
▁Next	-15.058
▁RedBlackBST	-15.058
▁Residents	-15.058
▁StockCalc	-15.058
▁amida	-15.058
▁isLeap	-15.058
▁isUruu	-15.058
▁reful	-15.058
▁simulate	-15.058
▁stackClass	-15.058
▁transpose	-15.058
0000110	-15.058
vote	-15.058
▁Deque	-15.058
▁WeightedUnion	-15.058
Path	-15.058
▁Range	-15.058
(({}{}{}){}	-15.058
(1、0、1、0	-15.058
4、4、4、	-15.058
GetDegree	-15.058
GetEdgeLength	-15.058
algorithm	-15.058
availability	-15.058
calculator	-15.058
eller	-15.058
ergetdRectangles	-15.058
eroDivisionError	-15.058
plane	-15.058
snake	-15.058
tsubo	-15.058
▁NotImplemented	-15.058
▁big	-15.058
▁printComparison	-15.058
▁shuffleR	-15.058
▁sugoroku	-15.058
78125	-15.058
1,2,3,4,5,6	-15.058
1011011	-15.058
isunited	-15.058
%3600//60	-15.058
(0、0、0、1)	-15.058
*20+20	-15.058
,5,10,50,100,500	-15.058
1、13、1	-15.058
[15:20]	-15.058
appearance	-15.058
bill	-15.058
forAinBif	-15.058
fortune	-15.058
heisei	-15.058
isOddPrime	-15.058
multiply	-15.058
packet	-15.058
perpendicular	-15.058
survivor	-15.058
▁(0、2、1)	-15.058
▁31+29+31+30	-15.058
▁isIncremental	-15.058
くなくまたは	-15.058
乗の列の総和の列を	-15.058
最小	-15.058
forward	-15.058
tes	-15.058
txt	-15.058
▁primary	-15.058
▁Poker	-15.058
▁printAns	-15.058
、4、6、	-15.058
▁UFT	-15.058
(1<<31)-1	-15.058
10**18	-15.058
LEAF	-15.058
chicken	-15.058
leapyear	-15.058
▁(0、1、-1、0	-15.058
255、0、255	-15.058
▁less	-15.058
//3600}:{	-15.058
/2)**2)	-15.058
0、255、255	-15.058
2,0),(0,	-15.058
255、255、0	-15.058
255、255、255	-15.058
[1:6]	-15.058
meiji	-15.058
syowa	-15.058
taisho	-15.058
▁magicall	-15.058
overweight	-15.058
1559	-15.058
2000000001	-15.058
Context	-15.058
1101101	-15.058
*20-20	-15.058
0100111	-15.058
▁shuffleK	-15.058
▁deleteMax	-15.058
を円周率で割った値の平方根を	-15.058
▁pay	-15.058
subseq	-15.058
1101111	-15.058
access	-15.058
notation	-15.058
wrap	-15.058
▁Rot	-15.058
[3:])	-15.058
▁allocate	-15.058
(9、5、	-15.058
を掛けた値より小さくない	-15.058
ffffff	-15.058
1,2,3)	-15.058
▁1)、((1、1、	-15.058
trip	-15.058
matchtwo	-15.058
halt	-15.058
hei	-15.058
▁play	-15.058
▁aob	-15.058
▁Bits	-15.058
//10)	-15.058
▁grader	-15.058
▁2761	-15.058
2**31-1	-15.058
OU	-15.058
anri	-15.058
equenc	-15.058
の列を展開しての和集合	-15.058
(0,0,[])	-15.058
0、1、2、2、3、3、	-15.058
candidates	-15.058
(2、3、0、1)	-15.058
0、255、0	-15.0581
Rectangle	-15.0581
▁includes	-15.0581
▁zan	-15.0581
arch	-15.0581
classify	-15.0581
charges	-15.0581
1,-1),(	-15.0581
▁signboard	-15.0581
を適用した列を展開して	-15.0581
300005	-15.0581
▁todec	-15.0581
0、0、255	-15.0581
bus	-15.0581
の順列の各要素を	-15.0581
▁LR	-15.0581
3、4、1	-15.0581
+15*	-15.0581
▁powexpr	-15.0581
▁submatrix	-15.0581
[-2]],	-15.0581
、(-1、3	-15.0581
678	-15.0582
1111101	-15.0582
を引いた値に円周率を	-15.0582
7、8、	-15.0582
▁boa	-15.0582
ute	-15.0582
2、5、1	-15.0582
▁70000	-15.0582
4000000	-15.0582
rap	-15.0582
ara	-15.0582
(0,1,	-15.0582
を取り除いた文字列のリストの	-15.0582
1100110	-15.0583
multipled	-15.0583
pathes	-15.0583
▁getMax	-15.0583
(0、0、0、0、0)	-15.0583
15625	-15.0583
▁100000000000001	-15.0583
▁Word	-15.0583
tri	-15.0583
とつは真でない	-15.0583
decimals	-15.0584
minutes	-15.0584
online	-15.0584
ok	-15.0584
pro	-15.0584
▁primecheck	-15.0584
▁swaping	-15.0584
*4+	-15.0584
lk	-15.0584
shortpath	-15.0584
を適用した列の組を	-15.0584
の整数値までの部分列を	-15.0585
exp	-15.0585
9、5、4、3、2	-15.0585
dbb	-15.0585
(0、1、0、1)	-15.0585
nextstep	-15.0586
finding	-15.0586
256.0	-15.0586
%(1-	-15.0586
▁coll	-15.0586
▁primeq	-15.0586
matchone	-15.0587
の絶対値で割った値	-15.0587
form	-15.0587
aus	-15.0588
の正弦を引いた値に	-15.0588
の集合をソートした列の各要素を	-15.0588
▁insertionsort	-15.0588
Wall	-15.0588
newnode	-15.0589
▁Deck	-15.0589
rightdown	-15.0589
つまり偽と等しく	-15.0589
50.0000	-15.0589
▁TreeNode	-15.0589
▁complist	-15.059
+4*	-15.059
shellsort	-15.059
▁nlcm	-15.059
▁整数の長さを	-15.059
force	-15.059
leftdown	-15.059
1、1、0、0、-1、-1、	-15.0591
(100-	-15.0591
1000000000.0	-15.0591
1001111	-15.0592
に含まれるかどうかを掛けた値	-15.0592
▁-3)、(	-15.0592
primeFactors	-15.0592
sed	-15.0593
ostorder	-15.0593
▁countingsort	-15.0593
▁selectionsort	-15.0594
のラジアンだけ	-15.0595
EAR	-15.0595
▁335	-15.0595
yo	-15.0595
symmetry	-15.0596
▁bubblesort	-15.0596
リー	-15.0596
に円周率を掛けた値で割った余りを	-15.0598
の末尾の先頭より小さい	-15.0598
を加えた値の整数値未満までの	-15.0598
/3,	-15.0598
▁ipow	-15.0598
を引いた値と等しいかどうか	-15.0599
*1520	-15.0599
(2、3、5、7	-15.0599
だけ左シフトした値のときの	-15.0599
▁0.25	-15.0599
leng	-15.06
000000000	-15.06
swapp	-15.06
番目の文字列で整形した文字列	-15.0601
cl	-15.0601
、(0、-1、0	-15.0601
を加えた値の文字を出力する	-15.0602
を加えた値を掛けた値以下の	-15.0603
0000	-15.0603
tta	-15.0604
▁688	-15.0604
▁locale	-15.0604
▁minbe	-15.0604
▁primeadd	-15.0604
60、8	-15.0605
▁maxbe	-15.0605
ov	-15.0605
rk	-15.0606
ift	-15.0606
0.0,0.0)	-15.0607
以上かどうかの列の総和を	-15.0607
、6、9	-15.0607
▁au	-15.0608
をソートした列を展開し	-15.0608
(1、2、3、0)	-15.0609
▁UF	-15.0609
ary	-15.0609
Comp	-15.0609
(5、4、3、2、1、0	-15.061
cand	-15.061
//100	-15.0611
▁3.1415926535897	-15.0611
[:2]	-15.0612
mb	-15.0612
乗を返す関数を適用した列の総和	-15.0613
で割った商未満までの数列	-15.0613
[-1]],	-15.0613
,1,1,0,	-15.0613
binarysearch	-15.0614
300001	-15.0614
、5、6、	-15.0614
▁1000000010	-15.0615
us	-15.0615
mi	-15.0616
rpn	-15.0616
)*15	-15.0616
25009	-15.0617
createtable	-15.0617
▁St	-15.0617
(10000000	-15.0618
1539	-15.0618
つまり末尾までの部分列の逆順	-15.0618
dif	-15.0618
▁35	-15.062
を引いた値番目が全て数字	-15.062
乗を加えた値と等しくまたは	-15.062
000、0.0000	-15.0621
((0,0),	-15.0621
)])%	-15.0622
の組に含まれない	-15.0622
cc	-15.0623
を加えた値番目の順序数が	-15.0624
、(2	-15.0625
を掛けた値の余弦	-15.0626
を掛けた値にネイピア数に	-15.0627
▁-2)、(	-15.0627
▁resolve	-15.0627
areas	-15.0628
774	-15.0628
番目までの部分列の長さに	-15.0628
((2、3	-15.0629
((0、1	-15.0631
xff	-15.0631
積のリストを	-15.0631
946	-15.0633
の長さを引いた値の絶対値	-15.0633
、4、6、2	-15.0634
と等しくないかどうかの列が	-15.0634
▁getinfo	-15.0634
▁40.0	-15.0636
つまり真と等しい	-15.0636
番目を英大文字に変換した文字列を	-15.0637
+1]+	-15.0638
tern	-15.0638
▁transport	-15.0639
の集合のリストの長さが	-15.064
▁50030	-15.064
▁200100	-15.064
/6)	-15.0641
%1000)	-15.0642
,0,1,	-15.0644
で割った商の整数値番目に	-15.0644
▁ネイピア数の長さが	-15.0644
Hif	-15.0644
4、12	-15.0644
を引いた値番目の最大値	-15.0645
sq	-15.0646
▁10000000019	-15.0646
ud	-15.0647
ring	-15.0648
を適用した列の組の列を	-15.065
9971	-15.065
▁bsort	-15.0651
he	-15.0651
childs	-15.0652
[8:	-15.0653
%500	-15.0653
▁997	-15.0658
50*	-15.0659
▁Dfs	-15.0659
、0、1、-1、1、-1、0、	-15.066
6、5	-15.0661
を加えた値番目番目以下のとき	-15.0661
、148.0	-15.0665
を加えた値を掛けた値未満までの	-15.0665
255、0、0	-15.0666
を掛けた値の余弦を掛けた値に	-15.0667
だけ左シフトした値の論理和番目	-15.0668
(99999999	-15.0668
12、21	-15.0668
で割った値の余弦を	-15.0669
3、3、	-15.0669
counts	-15.0669
insertzero	-15.0675
番目より小さいかどうかを	-15.0676
[1]-1,	-15.0676
無限大の	-15.0679
100,0)	-15.0681
((0、0、0)	-15.0681
を引いた値乗を掛けた値だけ	-15.0681
番目の整数値以下かどうかが	-15.0681
座標で割った値	-15.0683
▁sc	-15.0683
}({	-15.0687
▁0.000001	-15.0687
つまりネイピア数以下の	-15.0688
,10000)	-15.0688
BMI	-15.0689
▁SCC	-15.069
、0.0000	-15.0693
番目が全て	-15.0693
1,0),(0,	-15.0694
[1]-1)	-15.0694
1259	-15.0694
rc	-15.0697
0001	-15.0701
からなる列に含まれる	-15.0702
▁as	-15.0703
▁idt	-15.0703
番目を加えた値より小さい	-15.0706
を加えた値の列をソートした列	-15.0708
2、2、2、	-15.0709
、7、4	-15.071
つまり真と等しくない	-15.0713
-1000)	-15.0713
、(6、7、8)	-15.0713
の文字列を加えた値の列を	-15.0714
Dest	-15.0716
▁ssort	-15.0717
50500	-15.072
▁popl	-15.072
を掛けた値を加えた値より大きい	-15.0724
、(3、-	-15.0728
の列の集合の長さを	-15.0728
▁fibn	-15.0728
iz	-15.0729
を加えた値番目以上の	-15.0731
pl	-15.0732
8、1、2	-15.0733
289	-15.0734
を掛けた値で割った値だけ	-15.0735
を引いた値番目でない	-15.0747
▁無限の整数列の先頭の	-15.0748
▁Sp	-15.0748
、125、	-15.075
202	-15.075
入した整数値の文字列を	-15.075
の絶対値を引いた値	-15.0752
と等しいかどうかと	-15.0752
を掛けた値の絶対値を	-15.0753
16、1	-15.0757
のラジアン	-15.0758
21)、(	-15.0766
だけ左シフトした値より小さい	-15.0766
▁LCA	-15.0767
(0,100	-15.0768
番目の先頭の出現回数が	-15.077
のリストに	-15.077
▁((-2、0)	-15.0775
の長さ以下の	-15.0775
の整数値を加えた値の文字列	-15.0776
fs	-15.0782
を加えた値番目でない	-15.0785
//5	-15.0787
の正	-15.0789
を加えた値番目と等しい	-15.0792
▁(((0、	-15.0793
am	-15.0795
fr	-15.0797
▁Count	-15.0798
,0,1,0,	-15.0799
([1,	-15.0799
▁((0、1、2)	-15.0801
の文字列内の	-15.0802
[7])	-15.0806
を掛けた値を加えた値の平方根に	-15.0812
で割った余りと	-15.0816
▁getval	-15.082
▁(380、	-15.0822
を適用した列の最小値に	-15.0824
の整数値と等しくない	-15.083
の先頭番目の先頭に	-15.0834
を引いた値より大きくまたは	-15.0839
rindex	-15.0839
で割った値で整形した文字列を	-15.0842
1000000000000000	-15.0847
を掛けた値で整形した文字列を	-15.0851
1、16	-15.0852
番目を加えた値と	-15.0852
▁para	-15.0855
の組で割った余りを	-15.0861
で割った商を引いた値乗	-15.0862
▁0、10	-15.0865
の値の集まりの最大値が	-15.0866
の列の総和と等しいとき	-15.0869
番目のキーと値の集まりの各要素を	-15.087
円周率とし	-15.0871
(3、0)	-15.0875
の整数値だけ左シフトした値の	-15.0875
%2)	-15.0877
と等しくないかどうかの列	-15.0881
[0][0])	-15.0881
*9+	-15.0883
をソートした列の逆順を展開し	-15.0894
ci	-15.0894
の文字列の先頭を除いた部分列	-15.0901
71.00	-15.0904
▁0.000000	-15.0907
番目の長さの最小値	-15.0921
の末尾を掛けた値を	-15.0927
を引いた値を加えた値の最小値	-15.0927
6、6	-15.0934
の列の総和が	-15.0939
を引いた値の絶対値の列の最小値を	-15.0945
、7、8、9、5、4、3、2	-15.095
2、2)	-15.0952
[0][1])	-15.0953
1141	-15.0953
を掛けた値の先頭から	-15.0954
,(0,1,	-15.0955
▁1120	-15.0956
つまりネイピア数以上のとき	-15.0958
を掛けた値の余弦を掛けた値	-15.096
▁ngcd	-15.0961
<=25	-15.0962
pmatch	-15.0963
-1][0])	-15.0969
ットの	-15.097
を加えた値より小さくなくまたは	-15.0973
を適用した列の集合	-15.0977
を掛けた値の列の最大値を	-15.0979
の長さで割った商	-15.0986
の組に含まれまたは	-15.0995
を適用した列の最小値を	-15.1014
、720	-15.1016
の文字列の列の	-15.1021
で割った商の文字列を	-15.1024
の先頭の整数値を出力する	-15.1028
番目番目と等しくない	-15.1031
数番目に	-15.1035
▁sortdice	-15.1038
247	-15.1041
を引いた値番目で割った商	-15.1042
回分の列を展開して	-15.1045
の整数値で割った余りを	-15.1047
番目に空文字列を間に入れて	-15.1047
を引いた値の文字を	-15.1049
を引いた値を加えた値までの部分列	-15.1054
番目の長さより小さくかつ	-15.1054
20000000000	-15.1056
を引いた値番目の整数値から	-15.1058
の整数値で割った商を	-15.1062
▁(-1000	-15.1068
の末尾を引いた値から	-15.1075
())-1)	-15.1077
18)、(	-15.108
▁49	-15.1084
0、500)	-15.109
の文字列の逆順	-15.1091
addEdge	-15.1093
%100	-15.1095
10000000007	-15.1097
からなる列をソートした列の	-15.11
の列の総和と	-15.1102
▁1000004	-15.111
、8、1	-15.1111
▁15001	-15.1123
15)、(	-15.1133
+2*(	-15.114
の総和を引いた値から	-15.114
、6、5、	-15.1141
▁148.0	-15.1153
12)、(	-15.1153
を適用した列のリストの総和を	-15.1164
3550	-15.1192
からなる列を展開し	-15.1192
925	-15.1194
の列をソートした列の	-15.12
つまり現在の日時に	-15.1209
番目の先頭を掛けた値に	-15.121
▁result	-15.1212
+1].	-15.1233
190.0	-15.1235
2、18	-15.1242
▁135	-15.125
-1,1)	-15.1252
を加えた値の出現回数が	-15.126
を掛けた値で割った値に	-15.1272
+1)+	-15.1277
で割った値の正弦を	-15.1281
の整数値を掛けた値を	-15.1285
を適用した列のリストの総和の	-15.1291
の長さを加えた値が	-15.1292
)*0.8	-15.1296
ンタの列	-15.1298
乗の列の組	-15.1309
+1]==	-15.1337
とつは真かどうかを	-15.1344
の絶対値を加えた値から	-15.1344
▁(0、1、	-15.1346
maxmove	-15.1365
*6	-15.1374
つまりネイピア数を引いた値から	-15.1384
を引いた値の最小値番目の	-15.1384
で割った値の余弦を掛けた値を	-15.1388
▁2011	-15.1388
番目以下または	-15.1395
2018	-15.1402
3125	-15.1402
▁grade	-15.1404
▁shuffle	-15.1405
▁chebyshev	-15.1408
▁4)、(	-15.1419
つまり円周率と等しいとき	-15.1425
35.50	-15.1428
として空文字列を間に入れて	-15.1428
の最大値の列の最大値を	-15.143
497	-15.1432
つまりネイピア数の整数値を	-15.1436
未満までの数列の集合の列	-15.1443
ソートした列の先頭を除いた部分列	-15.1446
▁printans	-15.1449
の論理積の長さが	-15.1453
入した整数値の文字列	-15.1454
以上かどうかを	-15.1488
番目の先頭を掛けた値を加えた値	-15.1489
に空文字列	-15.1492
+1)//2	-15.1493
=3)	-15.1494
数が	-15.1497
の排他論理和との	-15.1498
771	-15.1507
▁20000001	-15.1508
(7,	-15.1528
ning	-15.1529
、255	-15.1532
▁((-1、2	-15.1534
11111111	-15.1536
の最大値を加えた値に	-15.1538
)**2)	-15.155
(0,1))	-15.1557
[1:]	-15.156
と等しくないかどうかの整数値	-15.1562
を引いた値の列の	-15.157
つまりネイピア数と	-15.1576
es	-15.1583
を掛けた値で割った余りを	-15.1592
ータを空白で分割した字句列を	-15.1603
▁{((	-15.1604
整数値から	-15.1607
で分割した字句列を連結した文字列	-15.1608
番目までの部分列の総和の列の総和	-15.1611
▁62	-15.1622
157	-15.1623
の列の集合と	-15.1632
を加えた値と等しい	-15.1633
▁1009	-15.1642
gt	-15.1653
4、2	-15.1657
現在の日時の	-15.1657
ソートした列の逆順を	-15.1667
]+[0]	-15.1672
226	-15.1674
▁360.	-15.168
を加えた値の列の最小値を	-15.1682
▁1000003	-15.1692
乗で割った商に	-15.1693
453	-15.1695
2、21	-15.17
87	-15.1702
.05	-15.1744
▁1013	-15.1771
を反転した列のリストを加えた値を	-15.1773
、5、10、50、100、500	-15.1779
*7	-15.1783
elseI	-15.1794
の排他論理和番目を	-15.1798
の総和と等しいとき	-15.1827
/4)	-15.1831
番目のリスト	-15.1868
norder	-15.1912
を掛けた値の正弦	-15.1913
の論理積の排他論理和番目	-15.1927
を加えた値の文字列に	-15.1932
▁((0.0	-15.1937
+1)-	-15.1966
(3、2	-15.197
を引いた値を掛けた値と等しいとき	-15.1997
間隔の数列のリストを加えた値	-15.1998
WE	-15.2005
の先頭の先頭を引いた値を	-15.201
424	-15.201
を加えた値番目を掛けた値を	-15.2028
500+	-15.2044
で割った商の最大値	-15.206
6)、(	-15.2075
76	-15.2091
の先頭の長さが	-15.2108
0、91	-15.2117
乗以下かどうか	-15.2129
),(-	-15.213
番目の最大値の列	-15.2148
のキーと値の集まりの長さ	-15.2168
以下かどうかの整数値を	-15.2172
長を	-15.2175
ットのときの	-15.2184
into	-15.2197
の末尾の先頭に	-15.2208
(1.0、	-15.221
▁2002	-15.2218
の論理和番目を	-15.2227
を引いた値を取り出した値を	-15.2271
の先頭で割った商を	-15.228
つまりネイピア数の先頭番目の	-15.2288
に含まれるかどうかが	-15.2288
▁U	-15.229
を引いた値番目の列を	-15.2293
を連結した文字列の列の集合	-15.232
を英小文字に変換した文字列が	-15.2326
番目を加えた値の最小値	-15.234
、(-2、	-15.2347
▁100000000001	-15.2349
▁incircle	-15.2361
円周率の	-15.2395
と等しくないかどうかを	-15.2396
の列の総和を加えた値を	-15.2409
列を連結した文字列の整数値を	-15.2414
9)、(	-15.2437
の逆順を加えた値を	-15.244
を加えた値で割った値の整数値を	-15.2447
64)	-15.2459
▁無限の整数列の総和	-15.2463
の先頭の浮動小数点数を	-15.2466
994	-15.2548
▁3.14159265	-15.2565
の列の長さを	-15.2568
getnum	-15.257
の論理積のリストをソートした列	-15.2583
の長さを返す関数をキーとして	-15.259
空列の総和	-15.2618
とネイピア数の	-15.2633
▁1005	-15.2636
25001	-15.2649
番目番目の先頭を	-15.2651
)+(	-15.2666
,1,0,	-15.2666
、201	-15.2724
の組をネイピア数	-15.2728
を加えた値番目を加えた値から	-15.2752
の文字列番目の	-15.2758
、"{}"	-15.2762
で割った値の文字列	-15.2774
▁(1、2、	-15.28
を引いた値を掛けた値をネイピア数	-15.2846
▁brea	-15.286
-2、0、2	-15.2934
▁入力された文字列の逆順を	-15.2946
の列回分の列を加えた値	-15.299
ト識別子	-15.2996
の最大値を加えた値を	-15.3011
の最大値の列の最小値を	-15.3017
▁Mask	-15.3033
▁take	-15.3052
の逆順に	-15.3056
▁scal	-15.3073
▁hour	-15.3074
▁Max	-15.308
座標を引いた値で割った値	-15.3083
▁minute	-15.3091
で割った値を引いた値の	-15.3094
▁INTER	-15.3098
▁chessboard	-15.31
▁frame	-15.3106
▁sosu	-15.3109
▁price	-15.313
番目と等しいかどうかを引いた値	-15.313
で割った商と	-15.3134
を現在の日時	-15.3149
▁scores	-15.3157
番目と等しくないかどうか	-15.3209
▁ju	-15.3211
、(0、0、	-15.3303
をソートした列が	-15.3303
:]))	-15.3323
を掛けた値を引いた値番目に	-15.3377
に含まれないかどうか	-15.3384
10、10	-15.3394
rename	-15.3395
番目までの部分列番目に	-15.3403
11、12	-15.3471
を引いた値で割った商に	-15.3478
のキーの集まりの集合の論理積	-15.3498
つまり空白文字を	-15.3499
空白文字に空白文字を間に入れて	-15.353
169	-15.3548
英大文字に変換した文字列	-15.3548
の余弦を掛けた値の	-15.3562
▁150000	-15.3562
▁59	-15.3676
の列の列	-15.3696
を加えた値と等しくまたは	-15.3699
60*	-15.3707
-2))	-15.3767
を引いた値の絶対値の列の総和を	-15.3844
番目をソートした列の各要素	-15.3869
の浮動小数点数で割った値	-15.3869
'))	-15.3877
▁Add	-15.3981
を掛けた値を加えた値の整数値	-15.4004
590	-15.4015
を引いた値の文字列	-15.4023
を引いた値の最小値を引いた値	-15.4032
より大きいかどうかを掛けた値	-15.4048
4.5	-15.4052
番目の出現回数を引いた値	-15.4059
の列が	-15.4088
36	-15.4096
を引いた値を掛けた値を加えた値が	-15.418
を加えた値までの部分列の整数値を	-15.4186
301	-15.4228
番目より小さいかどうか	-15.4229
4、3、2、1、0	-15.4239
ンのリスト	-15.4309
空白改行を取り除いた文字列の列	-15.4366
-1、-1、0、	-15.4535
つまり無限の整数列に	-15.4581
、(4、3、	-15.4654
7100	-15.4655
返す関数をキーとして逆順に	-15.471
で割った値の列を	-15.4716
,7,	-15.4727
の列を加えた値	-15.4728
を掛けた値の列	-15.4781
en	-15.4785
][2]	-15.4798
1080	-15.4931
番目を展開してを出力するの列	-15.4957
のキーの集まりを	-15.4958
の集合を引いた値のリスト	-15.4979
に円周率	-15.4979
を掛けた値を加えた値番目を	-15.4988
、360	-15.5014
適用した列を連結した文字列	-15.5015
],1,	-15.5032
、5、1、3	-15.5036
▁入力された文字列の浮動小数点数	-15.5052
▁108	-15.5064
を引いた値乗で割った商	-15.5082
▁153	-15.5125
"*	-15.5129
を加えた値に整数の	-15.5181
までの部分列の総和を引いた値	-15.5247
"#"	-15.5259
150.0	-15.5352
乗より小さいかどうか	-15.5445
hal	-15.5457
sumd	-15.5501
ex	-15.5537
elec	-15.5548
(2004	-15.5588
番目のキーの集まり	-15.5589
座標番目の	-15.5598
の集合の論理積のリストを	-15.5609
▁poly	-15.5618
の列の総和に	-15.5621
の出現回数と等しいとき	-15.5632
ep	-15.5634
の総和と等しいかどうか	-15.5692
-16	-15.5696
を引いた値を引いた値番目の	-15.5706
▁152	-15.574
を掛けた値の列の総和の文字列	-15.5746
](*	-15.5753
[2]>	-15.5758
の先頭に空白文字を加えた値に	-15.5777
英小文字に変換した文字列を	-15.5862
2550	-15.5936
▁202	-15.601
、200	-15.603
▁ps	-15.6121
番目の整数値を掛けた値	-15.6148
、550	-15.6151
、6)	-15.6197
▁"(	-15.621
ソートした列に	-15.6238
の文字列の先頭から	-15.6243
番目を引いた値の最小値	-15.6252
NO	-15.6305
番目の先頭番目に	-15.6365
ee	-15.6374
180)	-15.6411
掛けた値を引いた値で割った値の列	-15.6545
55	-15.6584
144	-15.6604
10005	-15.6605
40.00	-15.6654
1、0、5、	-15.6674
20*	-15.6678
-1]),	-15.6696
を掛けた値以上	-15.6701
,9)	-15.6795
の最小値を掛けた値だけ	-15.6813
▁-1000000	-15.6855
整数を適用した列を連結した文字列	-15.6886
の順序数を加えた値	-15.6894
der	-15.6956
を展開してを	-15.6967
番目を加えた値番目の	-15.7011
▁119	-15.7015
で分割した字句列の集合	-15.7101
[2:-	-15.7169
つまり未定値と等しいかどうかを	-15.7172
inp	-15.7177
nectedComponents	-15.7178
2200	-15.718
の整数値番目の	-15.7187
(-1、0)	-15.7269
整数値の最小値を加えた値	-15.7405
6、3	-15.7406
、3、6)	-15.7415
lc	-15.7476
900	-15.7536
先頭を返す関数を適用した列の総和	-15.7595
で割った値を掛けた値	-15.7656
neg	-15.7664
over	-15.7673
INTERSECT	-15.7698
Get	-15.7701
37.50	-15.7704
String	-15.7729
refl	-15.7738
long	-15.7754
rotat	-15.7757
short	-15.7772
499	-15.7796
shu	-15.7802
の末尾番目の末尾	-15.7811
1900	-15.7812
4.0	-15.7823
fac	-15.7825
つまり入力された文字列の列	-15.7839
(1、1、1、1、1	-15.7859
の長さで割った値の整数値を	-15.7861
で整形した文字列を返す関数を	-15.7861
30001	-15.789
▁overlap	-15.7909
乗で割った値を加えた値を	-15.791
、5)	-15.797
83.00	-15.7985
25000	-15.7994
番目の文字列の列	-15.8001
((-1、1)	-15.8003
eu	-15.8079
番目のラジアンを	-15.8145
▁heights	-15.8151
の先頭の順序数	-15.8165
、150	-15.8201
prep	-15.8209
で割った値を返す関数を	-15.8256
70)	-15.8265
つまり整数の	-15.8278
を引いた値を加えた値に	-15.8282
番目を探して見つかった位置	-15.8303
,1,0,0,	-15.8307
▁38	-15.8322
0、500	-15.8398
、(0、0、-	-15.841
77.00	-15.8415
0.0000	-15.8482
改行せずに	-15.85
(0,[	-15.8514
の集合の論理積をソートした列を	-15.853
(0、1、2)	-15.8562
の論理積の排他論理和	-15.8574
0、1、2	-15.8589
、4000	-15.8608
を加えた値の列の	-15.8628
chebyshev	-15.8714
shuffle	-15.8719
grade	-15.872
1000000000	-15.8734
▁digit	-15.8812
position	-15.8854
を引いた値乗を引いた値を掛けた値	-15.8862
、0、0、0、0	-15.8895
proj	-15.8911
articulation	-15.8911
100000000000000	-15.8911
PuzzleState	-15.8913
CheckDisit	-15.8913
getDepth	-15.8913
isPacked	-15.8914
1299709	-15.8914
getScore	-15.8914
triArea	-15.8914
getInt	-15.8914
104730	-15.8914
cipher	-15.8914
policy	-15.8914
Piece	-15.8914
expand	-15.8914
myhash	-15.8915
mak	-15.8916
Euc	-15.8916
marge	-15.8917
dprod	-15.8917
41412121	-15.8917
kj	-15.8936
listing	-15.8959
の文字番目	-15.896
を加えた値にネイピア数に	-15.8962
だけ左シフトした値未満までの数列	-15.8975
、0.00000000	-15.8976
findk	-15.8984
2000000	-15.8987
sel	-15.9013
temp	-15.9016
1440	-15.9023
空辞書	-15.9024
prod	-15.9042
bridge	-15.9043
SelectionSort	-15.9043
BubbleSort	-15.9044
LinkList	-15.9044
jarvis	-15.9044
scaler	-15.9044
PPeQ	-15.9045
3649	-15.9045
Fib	-15.9047
13、2	-15.9052
に含まれるかどうかで割った余りを	-15.9056
の先頭の全てが英大文字	-15.9058
crossPoint	-15.9069
Lst	-15.9072
oct	-15.9076
▁辞書のキーと値の集まりを	-15.9087
collision	-15.9092
divide	-15.9093
-1000000000	-15.9095
plus	-15.9096
binsearch	-15.9104
reflect	-15.9115
augment	-15.9117
Stack	-15.9118
366	-15.9128
CountingSort	-15.9131
Sosu	-15.9133
%3)	-15.9137
answer	-15.9143
Line	-15.9145
binarySearch	-15.9146
insertionSort	-15.9146
Dinic	-15.915
insertion	-15.9151
drop	-15.9153
4280	-15.9153
で割った値を掛けた値を加えた値	-15.9157
2147483647	-15.9158
65535	-15.9158
trac	-15.9164
counting	-15.9167
で割った値の余弦	-15.9181
▁((10	-15.9208
asin	-15.9214
44、	-15.9225
0、-1、0	-15.9273
等しいかどうかの列が全てが真かつ	-15.9288
**0.5	-15.9302
の列の総和を引いた値を	-15.9311
の先頭の先頭番目	-15.9315
の順列	-15.9316
2000000000	-15.9338
入力された文字列の各要素に	-15.9395
▁isn	-15.9397
の逆順の各要素に	-15.9416
200000	-15.943
の論理和から	-15.9451
の論理積を引いた値番目	-15.9451
乗を掛けた値の整数値を	-15.9456
readlines	-15.9511
の最大値の文字列	-15.9512
乗と等しいかどうか	-15.9602
0、65	-15.9607
fc	-15.964
9*(	-15.9669
▁0.2	-15.9681
2、4	-15.9683
196	-15.9711
44	-15.9752
の論理積の列の総和	-15.9753
(1、1、1、1	-15.9759
の先頭を取り出した値の整数値	-15.9814
の長さで整形した文字列	-15.9816
ra	-15.9823
(-2、0)	-15.9832
ンタの列を	-15.985
乗以下	-15.9866
-1][1])	-15.9887
(1、2、3、4、5	-15.9903
▁(0.0、	-15.991
//50	-15.9925
を引いた値以下かどうか	-15.9934
だけ左シフトした値番目	-15.9939
getid	-15.9948
の末尾の先頭を除いた部分列	-15.995
を加えた値の平方根で割った値	-15.9952
からなる列に含まれ	-15.9955
(1、2、3、4、5、6)	-15.9958
の最小値の文字列	-15.997
4、7、	-16.0044
に改行文字を加えた値を掛けた値を	-16.007
▁(1、0、2	-16.008
を掛けた値で割った値を引いた値を	-16.0102
ko	-16.0115
((0、1、2、3、4、5、6	-16.0118
、7、8、9	-16.012
-1、0、1、0)	-16.0135
、2、4)	-16.0138
4、2、1、	-16.0145
の先頭で割った値	-16.0179
、1000000000	-16.0187
、(-1、0、	-16.0194
/3)	-16.0199
の絶対値の列の総和を	-16.0207
6,4,6,	-16.0244
(6、7、8)	-16.0246
(10、11、12、13、1	-16.0248
1:-1]	-16.0252
末尾から	-16.0268
5、4、3、2	-16.0277
の絶対値の最小値に	-16.028
つまり先頭までの	-16.0285
番目を引いた値以下	-16.0301
以上	-16.0304
番目と等しく	-16.0304
をソートした列の末尾	-16.031
、11、1	-16.0313
[0]+1,	-16.0326
(0、1、2、3	-16.0332
つまり空辞書	-16.0346
est	-16.0358
のリストの逆順	-16.0366
で割った商番目で割った余りを	-16.0376
1、1)	-16.0378
までの部分列を加えた値を	-16.0395
,0,0,0,1	-16.0402
を適用した列の組の列	-16.0405
[-2]	-16.0414
、16、25	-16.0416
番目以上	-16.0419
▁((0、0、-	-16.0428
の絶対値の最小値を	-16.0439
2、4、8、1	-16.0445
までの部分列の整数値	-16.0454
番目までの部分列の逆順	-16.0457
を加えた値の文字列の末尾	-16.0464
6、16	-16.0469
(0、-3)	-16.0473
)[2:]	-16.0476
つまり未定値の列	-16.0505
,0,0,0,	-16.0509
の末尾の整数値	-16.0514
**2)**0.5	-16.0516
▁(1、0、-1、0	-16.052
(0,2	-16.0527
,1,1,	-16.0528
の論理値を加えた値を掛けた値	-16.0533
列のリストを	-16.0541
の整数値番目の末尾	-16.0547
かどうかが	-16.0547
(5、4、3、2、1	-16.055
▁(0、1、0、-1	-16.0551
(0、0、0、0、0、0	-16.0553
までの部分列の総和を	-16.0559
+1)//	-16.057
0、80、1	-16.0571
▁ca	-16.0571
の全てが英大文字	-16.0572
の平方根の列の組	-16.0573
、4、3、2	-16.0574
ield	-16.0575
irst	-16.0577
から読み込んだ行の列の各要素	-16.0577
番目と等しいかどうかを	-16.0577
0000,0.00000000,	-16.0578
▁(2、3、5	-16.0578
circum	-16.0579
ent	-16.0579
3、3、3、3、3、3、3、3	-16.0579
▁100.0000	-16.0579
分割	-16.0579
▁31+29+31+30+31	-16.0579
1+29+31+30+31+30	-16.0579
cum	-16.0579
rence	-16.0579
をキーとして逆順に	-16.0579
Mag	-16.0579
0、1、2、0、1、2	-16.0579
、31、30、31、30	-16.058
-1、-1、-1、-1、-	-16.058
▁"(({}{}	-16.058
▁31+29+31	-16.058
とつ	-16.058
より小さいかどうかの列が	-16.058
ムに	-16.058
回	-16.058
0、1、1、2、	-16.058
1、-1、-1、-2、	-16.058
eft	-16.058
{}){}{})	-16.058
{}{})	-16.058
▁31+29	-16.058
+31+30+31	-16.058
反	-17.4309
チ	-17.431
規	-17.4311
転	-17.4312
英	-17.4313
弦	-17.4314
約	-17.4315
公	-17.4316
率	-17.4317
周	-17.4318
円	-17.4319
切	-17.432
ァ	-17.4321
見	-17.4322
探	-17.4323
排	-17.4324
他	-17.4325
根	-17.4326
方	-17.4327
平	-17.4328
応	-17.4329
ム	-17.433
換	-17.4331
右	-17.4332
ロ	-17.4333
在	-17.4334
む	-17.4335
挿	-17.4336
序	-17.4337
ず	-17.4338
逆	-17.4339
何	-17.434
付	-17.4341
点	-17.4342
浮	-17.4343
動	-17.4344
形	-17.4345
絶	-17.4346
現	-17.4347
式	-17.4348
隔	-17.4349
端	-17.435
両	-17.4351
キ	-17.4352
合	-17.4353
内	-17.4354
連	-17.4355
限	-17.4356
無	-17.4357
辞	-17.4358
識	-17.4359
子	-17.436
別	-17.4361
総	-17.4362
位	-17.4363
対	-17.4364
改	-17.4365
置	-17.4366
標	-17.4367
座	-17.4368
ば	-17.4369
論	-17.437
理	-17.4371
含	-17.4372
読	-17.4373
ん	-17.4374
み	-17.4375
和	-17.4376
取	-17.4377
集	-17.4378
ソ	-17.4379
ど	-17.438
込	-17.4381
書	-17.4382
下	-17.4383
!	-17.4384
ピ	-17.4385
以	-17.4386
大	-17.4387
最	-17.4388
ュ	-17.4389
組	-17.439
頭	-17.4391
先	-17.4392
小	-17.4393
追	-17.4394
よ	-17.4395
断	-17.4396
中	-17.4397
適	-17.4398
尾	-17.4399
ぞ	-17.44
展	-17.4401
掛	-17.4402
開	-17.4403
句	-17.4404
そ	-17.4405
白	-17.4406
せ	-17.4407
つ	-17.4408
だ	-17.4409
引	-17.441
各	-17.4411
出	-17.4412
割	-17.4413
空	-17.4414
要	-17.4415
素	-17.4416
満	-17.4417
等	-17.4418
入	-17.4419
未	-17.442
整	-17.4421
順	-17.4422
け	-17.4423
文	-17.4424
き	-17.4425
力	-17.4426
繰	-17.4427
字	-17.4428
れ	-17.4429
ら	-17.443
り	-17.4431
目	-17.4432
番	-17.4433
か	-17.4434
値	-17.4435
o	-17.4436
